{
  "version": "1.0",
  "truncation": null,
  "padding": null,
  "added_tokens": [
    {
      "id": 0,
      "content": "<s>",
      "single_word": false,
      "lstrip": false,
      "rstrip": false,
      "normalized": false,
      "special": true
    },
    {
      "id": 1,
      "content": "</s>",
      "single_word": false,
      "lstrip": false,
      "rstrip": false,
      "normalized": false,
      "special": true
    },
    {
      "id": 2,
      "content": "<pad>",
      "single_word": false,
      "lstrip": false,
      "rstrip": false,
      "normalized": false,
      "special": true
    },
    {
      "id": 3,
      "content": "<unk>",
      "single_word": false,
      "lstrip": false,
      "rstrip": false,
      "normalized": false,
      "special": true
    }
  ],
  "normalizer": null,
  "pre_tokenizer": {
    "type": "ByteLevel",
    "add_prefix_space": true,
    "trim_offsets": true,
    "use_regex": true
  },
  "post_processor": null,
  "decoder": null,
  "model": {
    "type": "BPE",
    "dropout": null,
    "unk_token": null,
    "continuing_subword_prefix": null,
    "end_of_word_suffix": null,
    "fuse_unk": false,
    "byte_fallback": false,
    "ignore_merges": false,
    "vocab": {
      "<s>": 0,
      "</s>": 1,
      "<pad>": 2,
      "<unk>": 3,
      "!": 4,
      "\"": 5,
      "#": 6,
      "$": 7,
      "%": 8,
      "&": 9,
      "'": 10,
      "(": 11,
      ")": 12,
      "*": 13,
      "+": 14,
      ",": 15,
      "-": 16,
      ".": 17,
      "/": 18,
      "0": 19,
      "1": 20,
      "2": 21,
      "3": 22,
      "4": 23,
      "5": 24,
      "6": 25,
      "7": 26,
      "8": 27,
      "9": 28,
      ":": 29,
      ";": 30,
      "<": 31,
      "=": 32,
      ">": 33,
      "?": 34,
      "@": 35,
      "A": 36,
      "B": 37,
      "C": 38,
      "D": 39,
      "E": 40,
      "F": 41,
      "G": 42,
      "H": 43,
      "I": 44,
      "J": 45,
      "K": 46,
      "L": 47,
      "M": 48,
      "N": 49,
      "O": 50,
      "P": 51,
      "Q": 52,
      "R": 53,
      "S": 54,
      "T": 55,
      "U": 56,
      "V": 57,
      "W": 58,
      "X": 59,
      "Y": 60,
      "Z": 61,
      "[": 62,
      "\\": 63,
      "]": 64,
      "^": 65,
      "_": 66,
      "`": 67,
      "a": 68,
      "b": 69,
      "c": 70,
      "d": 71,
      "e": 72,
      "f": 73,
      "g": 74,
      "h": 75,
      "i": 76,
      "j": 77,
      "k": 78,
      "l": 79,
      "m": 80,
      "n": 81,
      "o": 82,
      "p": 83,
      "q": 84,
      "r": 85,
      "s": 86,
      "t": 87,
      "u": 88,
      "v": 89,
      "w": 90,
      "x": 91,
      "y": 92,
      "z": 93,
      "{": 94,
      "|": 95,
      "}": 96,
      "~": 97,
      "¡": 98,
      "¢": 99,
      "£": 100,
      "¤": 101,
      "¥": 102,
      "¦": 103,
      "§": 104,
      "¨": 105,
      "©": 106,
      "ª": 107,
      "«": 108,
      "¬": 109,
      "®": 110,
      "¯": 111,
      "°": 112,
      "±": 113,
      "²": 114,
      "³": 115,
      "´": 116,
      "µ": 117,
      "¶": 118,
      "·": 119,
      "¸": 120,
      "¹": 121,
      "º": 122,
      "»": 123,
      "¼": 124,
      "½": 125,
      "¾": 126,
      "¿": 127,
      "Â": 128,
      "Ã": 129,
      "Ä": 130,
      "Å": 131,
      "Æ": 132,
      "Ç": 133,
      "È": 134,
      "É": 135,
      "Ê": 136,
      "Ë": 137,
      "Ì": 138,
      "Í": 139,
      "Î": 140,
      "Ï": 141,
      "Ð": 142,
      "Ñ": 143,
      "Ò": 144,
      "Ó": 145,
      "Ô": 146,
      "Õ": 147,
      "Ö": 148,
      "×": 149,
      "Ø": 150,
      "Ù": 151,
      "Ú": 152,
      "Û": 153,
      "Ü": 154,
      "Ý": 155,
      "Þ": 156,
      "ß": 157,
      "à": 158,
      "á": 159,
      "â": 160,
      "ã": 161,
      "ä": 162,
      "å": 163,
      "æ": 164,
      "ç": 165,
      "è": 166,
      "é": 167,
      "ê": 168,
      "ë": 169,
      "ì": 170,
      "í": 171,
      "î": 172,
      "ï": 173,
      "ð": 174,
      "ñ": 175,
      "ò": 176,
      "ó": 177,
      "ô": 178,
      "Ā": 179,
      "ā": 180,
      "Ă": 181,
      "ă": 182,
      "Ą": 183,
      "ą": 184,
      "Ć": 185,
      "ć": 186,
      "Ĉ": 187,
      "ĉ": 188,
      "Ċ": 189,
      "Ď": 190,
      "ď": 191,
      "Đ": 192,
      "đ": 193,
      "Ē": 194,
      "ē": 195,
      "Ĕ": 196,
      "ĕ": 197,
      "Ė": 198,
      "ė": 199,
      "Ę": 200,
      "ę": 201,
      "Ě": 202,
      "ě": 203,
      "ğ": 204,
      "Ġ": 205,
      "ġ": 206,
      "Ģ": 207,
      "ģ": 208,
      "Ĥ": 209,
      "ĥ": 210,
      "Ħ": 211,
      "ħ": 212,
      "Ĩ": 213,
      "ĩ": 214,
      "Ī": 215,
      "ī": 216,
      "Ĭ": 217,
      "ĭ": 218,
      "Į": 219,
      "į": 220,
      "İ": 221,
      "ı": 222,
      "Ĳ": 223,
      "ĳ": 224,
      "Ĵ": 225,
      "ĵ": 226,
      "Ķ": 227,
      "ķ": 228,
      "ĸ": 229,
      "Ĺ": 230,
      "ĺ": 231,
      "Ļ": 232,
      "ļ": 233,
      "Ľ": 234,
      "ľ": 235,
      "Ŀ": 236,
      "ŀ": 237,
      "Ł": 238,
      "ł": 239,
      "Ń": 240,
      "Ġt": 241,
      "he": 242,
      "Ġa": 243,
      "in": 244,
      "re": 245,
      "on": 246,
      "Ġthe": 247,
      "er": 248,
      "Ġs": 249,
      "at": 250,
      "Ġo": 251,
      "Ġw": 252,
      "en": 253,
      "Ġc": 254,
      "ed": 255,
      "it": 256,
      "nd": 257,
      "is": 258,
      "or": 259,
      "es": 260,
      "al": 261,
      "Ġf": 262,
      "Ġb": 263,
      "Ġp": 264,
      "an": 265,
      "Ġof": 266,
      "Ġin": 267,
      "ar": 268,
      "ing": 269,
      "ou": 270,
      "Ġm": 271,
      "Ġd": 272,
      "Ġand": 273,
      "Ġto": 274,
      "as": 275,
      "ic": 276,
      "ion": 277,
      "le": 278,
      "Ġh": 279,
      "ro": 280,
      "Ġth": 281,
      "ent": 282,
      "el": 283,
      "Ġre": 284,
      "ct": 285,
      "Ġl": 286,
      "il": 287,
      "Ġn": 288,
      "om": 289,
      "st": 290,
      "Ġe": 291,
      "et": 292,
      "ĠT": 293,
      "id": 294,
      "im": 295,
      "Ġg": 296,
      "ot": 297,
      "ol": 298,
      "ra": 299,
      "ve": 300,
      "ig": 301,
      "ut": 302,
      "ĠI": 303,
      "ly": 304,
      "ĠS": 305,
      "ation": 306,
      "ow": 307,
      "am": 308,
      "Ġis": 309,
      "Ġbe": 310,
      "Ġon": 311,
      "ĠA": 312,
      "Ġfor": 313,
      "us": 314,
      "ce": 315,
      "ur": 316,
      "Ġhe": 317,
      "ad": 318,
      "ith": 319,
      "ĠC": 320,
      "ch": 321,
      "Ġst": 322,
      "ay": 323,
      "ver": 324,
      "Ġthat": 325,
      "ul": 326,
      "Ġwith": 327,
      "Ġy": 328,
      "Ġwas": 329,
      "ir": 330,
      "âĢ": 331,
      "Ġ(": 332,
      "Ġas": 333,
      "os": 334,
      "ĠM": 335,
      "Ġ1": 336,
      "Ġan": 337,
      "un": 338,
      "ter": 339,
      "_{": 340,
      "ĠThe": 341,
      "Ġal": 342,
      "Ġcon": 343,
      "Ġwe": 344,
      "if": 345,
      "Ġit": 346,
      "ĠB": 347,
      "Ġwh": 348,
      "od": 349,
      "Ġpro": 350,
      "ĠH": 351,
      "Ġyou": 352,
      "ĠP": 353,
      "um": 354,
      "em": 355,
      "ri": 356,
      "her": 357,
      "ac": 358,
      "Ġat": 359,
      "ag": 360,
      "op": 361,
      "res": 362,
      "igh": 363,
      "ist": 364,
      "Ġ$": 365,
      "ld": 366,
      "Ġv": 367,
      "Ġby": 368,
      "rom": 369,
      "Ġ2": 370,
      "qu": 371,
      "ĠW": 372,
      "ĠD": 373,
      "ect": 374,
      "th": 375,
      "ill": 376,
      "Ġcom": 377,
      "ers": 378,
      "Ġde": 379,
      "est": 380,
      "ab": 381,
      "pp": 382,
      "ate": 383,
      "Ġha": 384,
      "se": 385,
      "ain": 386,
      "Ġex": 387,
      "ĠR": 388,
      "ant": 389,
      "ĠF": 390,
      "Ġare": 391,
      "ke": 392,
      "Ġse": 393,
      "ore": 394,
      "Ġor": 395,
      "ity": 396,
      "Ġsu": 397,
      "iv": 398,
      "ess": 399,
      "oc": 400,
      "ĠL": 401,
      "Ġr": 402,
      "'s": 403,
      "Ġfrom": 404,
      "red": 405,
      "ight": 406,
      "and": 407,
      "ĠN": 408,
      "ĠG": 409,
      "ive": 410,
      "ell": 411,
      "Ġne": 412,
      "Ġsh": 413,
      "ĠE": 414,
      "pt": 415,
      "ment": 416,
      "art": 417,
      "^{": 418,
      "Ġch": 419,
      "Ġnot": 420,
      "ort": 421,
      "ies": 422,
      "Ġ\"": 423,
      "Ġle": 424,
      "ine": 425,
      "Ġhis": 426,
      "end": 427,
      "ould": 428,
      "nt": 429,
      "all": 430,
      "ated": 431,
      "00": 432,
      "ud": 433,
      "pl": 434,
      "ard": 435,
      "Ġu": 436,
      "ial": 437,
      "}\\": 438,
      "ath": 439,
      "Ġhave": 440,
      "Ġthis": 441,
      "Ġus": 442,
      "ge": 443,
      "te": 444,
      "gh": 445,
      "âĢĻ": 446,
      "og": 447,
      "Ġwere": 448,
      "rou": 449,
      "Ġsp": 450,
      "ure": 451,
      "ĠJ": 452,
      "ich": 453,
      "ust": 454,
      "ĠO": 455,
      "Ġk": 456,
      "ph": 457,
      "ical": 458,
      "ast": 459,
      "per": 460,
      "ff": 461,
      "Ġab": 462,
      "ome": 463,
      "Ġpl": 464,
      "ost": 465,
      "our": 466,
      "ction": 467,
      "ide": 468,
      "Ġher": 469,
      "The": 470,
      "Ġhad": 471,
      "ie": 472,
      "Ġme": 473,
      "Ġcan": 474,
      "}$": 475,
      "out": 476,
      "ak": 477,
      "Ġwhe": 478,
      "iz": 479,
      "Ġres": 480,
      "ib": 481,
      "Ġall": 482,
      "ack": 483,
      "Ġcomp": 484,
      "ous": 485,
      "ong": 486,
      "Ġun": 487,
      "ran": 488,
      "ip": 489,
      "ok": 490,
      "Ġbut": 491,
      "ther": 492,
      "ia": 493,
      "ear": 494,
      "ime": 495,
      "Ġ19": 496,
      "orm": 497,
      "ĠâĢ": 498,
      "Ġad": 499,
      "to": 500,
      "Ġwor": 501,
      "Ġsa": 502,
      "ĠIn": 503,
      "du": 504,
      "ase": 505,
      "ult": 506,
      "Ġcl": 507,
      "Ġwhich": 508,
      "ary": 509,
      "Ġcont": 510,
      "ap": 511,
      "Ġj": 512,
      "{\\": 513,
      "ame": 514,
      "one": 515,
      "act": 516,
      "Ġim": 517,
      "cc": 518,
      "ĠU": 519,
      "ind": 520,
      "ĠK": 521,
      "ign": 522,
      "ec": 523,
      "Ġdo": 524,
      "ry": 525,
      "are": 526,
      "ions": 527,
      "Ġhas": 528,
      "ru": 529,
      ".\"": 530,
      "Ġout": 531,
      "math": 532,
      "Ġgo": 533,
      "ber": 534,
      "}}": 535,
      "ice": 536,
      "ations": 537,
      "Ġone": 538,
      "Ġper": 539,
      "Ġen": 540,
      "cl": 541,
      "age": 542,
      "ents": 543,
      "ass": 544,
      "ep": 545,
      "ĠTh": 546,
      "Ġthey": 547,
      "Ġtheir": 548,
      "ence": 549,
      "Ġup": 550,
      "ens": 551,
      "ian": 552,
      "ose": 553,
      "Ġshe": 554,
      "able": 555,
      "Ġdis": 556,
      "ally": 557,
      "Ġ3": 558,
      "so": 559,
      "Ġwill": 560,
      "ely": 561,
      "Ġapp": 562,
      "av": 563,
      "ue": 564,
      "ere": 565,
      "ub": 566,
      "ft": 567,
      "ond": 568,
      "Ġso": 569,
      "ach": 570,
      "ord": 571,
      "ace": 572,
      "Ġag": 573,
      "Ġman": 574,
      "ire": 575,
      "ress": 576,
      "Ġar": 577,
      "ys": 578,
      "ound": 579,
      "Ġyour": 580,
      "own": 581,
      "ition": 582,
      "Ġmore": 583,
      "Ġqu": 584,
      "Ġbeen": 585,
      "01": 586,
      "Ġ$\\": 587,
      "Ġwho": 588,
      "'t": 589,
      "ook": 590,
      "ĠHe": 591,
      "ake": 592,
      "Ġev": 593,
      "ance": 594,
      "Ġ|": 595,
      "wo": 596,
      "very": 597,
      "vel": 598,
      "ree": 599,
      "fter": 600,
      "Ġsaid": 601,
      "--": 602,
      "ĠV": 603,
      "Ġother": 604,
      "Ġkn": 605,
      "ile": 606,
      "ite": 607,
      "Ġhim": 608,
      "Ġwould": 609,
      "ew": 610,
      "Ġsc": 611,
      "Ġthan": 612,
      "ĠSt": 613,
      "ough": 614,
      "ang": 615,
      "rac": 616,
      "Ġalso": 617,
      "reat": 618,
      "ll": 619,
      "),": 620,
      ").": 621,
      "Ġpart": 622,
      "ĠIt": 623,
      "int": 624,
      "Ġli": 625,
      "Ġpre": 626,
      "Ġabout": 627,
      "oll": 628,
      "hed": 629,
      "ors": 630,
      "form": 631,
      "ks": 632,
      "erv": 633,
      "Ġover": 634,
      "ma": 635,
      "Ġthere": 636,
      "ĠCh": 637,
      "ory": 638,
      "Ġro": 639,
      "Ġtime": 640,
      "Ġinto": 641,
      "old": 642,
      "Ġmy": 643,
      "we": 644,
      "ric": 645,
      "irst": 646,
      "Ġte": 647,
      "iff": 648,
      "Ġoff": 649,
      "Ġno": 650,
      "$\\": 651,
      "Ġwhen": 652,
      "Ġrec": 653,
      "Ġits": 654,
      "ish": 655,
      "ĠY": 656,
      "ov": 657,
      "ild": 658,
      "ount": 659,
      "Ġthem": 660,
      "ced": 661,
      "Ġbet": 662,
      "Ġtwo": 663,
      "Ġsome": 664,
      "port": 665,
      "}^{": 666,
      "Ġany": 667,
      "Ġbl": 668,
      "Ġra": 669,
      "Ġsy": 670,
      "Ġ4": 671,
      "row": 672,
      "ays": 673,
      "mer": 674,
      "ove": 675,
      "aus": 676,
      "Ġyear": 677,
      "}_{": 678,
      "}{": 679,
      "ied": 680,
      "cre": 681,
      "ons": 682,
      "ark": 683,
      "ater": 684,
      "Ġif": 685,
      "ific": 686,
      "nder": 687,
      "ĠĠ": 688,
      "ob": 689,
      "ates": 690,
      "xt": 691,
      "}(": 692,
      "ings": 693,
      "ne": 694,
      "Ġfirst": 695,
      "##": 696,
      "Ġbec": 697,
      "erm": 698,
      "Ġafter": 699,
      "vers": 700,
      "ail": 701,
      "ood": 702,
      "Ġact": 703,
      "ular": 704,
      "Ġ5": 705,
      "eth": 706,
      "..": 707,
      "Ġfl": 708,
      "ces": 709,
      "Ġdes": 710,
      "rans": 711,
      "oth": 712,
      "uc": 713,
      "âĢĿ": 714,
      "Ġonly": 715,
      "ious": 716,
      "Ġcould": 717,
      "ick": 718,
      "Ġpe": 719,
      "Ġdiff": 720,
      "Ġ201": 721,
      "Ġind": 722,
      "the": 723,
      "Ġob": 724,
      "iss": 725,
      "Ġnew": 726,
      "Ġam": 727,
      "Ġass": 728,
      "itt": 729,
      "Ġacc": 730,
      "Ġwork": 731,
      "Ġtra": 732,
      "Ġwhat": 733,
      "rough": 734,
      "ased": 735,
      "rib": 736,
      "Ġinter": 737,
      "Ġpat": 738,
      ",\"": 739,
      "Ġlike": 740,
      "Ġour": 741,
      "urn": 742,
      "amp": 743,
      "Ġsub": 744,
      "Ġfe": 745,
      "Ġstud": 746,
      "Ġac": 747,
      "pe": 748,
      "Ġcons": 749,
      "ta": 750,
      "Ġph": 751,
      "Ġrel": 752,
      "Ġeff": 753,
      "Ġdid": 754,
      "ink": 755,
      "clud": 756,
      "Ġ200": 757,
      "ject": 758,
      "lect": 759,
      "ans": 760,
      "olog": 761,
      "Ġunder": 762,
      "Ġco": 763,
      "Ġback": 764,
      "ĠWe": 765,
      "ĠThis": 766,
      "fore": 767,
      "Ġthen": 768,
      "Ġ0": 769,
      "pr": 770,
      "round": 771,
      "Ġmod": 772,
      "ade": 773,
      "Ġreg": 774,
      "ual": 775,
      "Ġcomm": 776,
      "uring": 777,
      "Ġmay": 778,
      "pect": 779,
      "})": 780,
      "Ġgen": 781,
      "Ġdi": 782,
      "ren": 783,
      "Ġpres": 784,
      "Ġget": 785,
      "Ġatt": 786,
      "orn": 787,
      "Ġthese": 788,
      "Ġsm": 789,
      "Ġpos": 790,
      "Ġwhere": 791,
      "ram": 792,
      "ps": 793,
      "Ġjust": 794,
      "ating": 795,
      "Ġtrans": 796,
      "ween": 797,
      "tain": 798,
      "Ġ-": 799,
      "hat": 800,
      "rit": 801,
      "ollow": 802,
      "lic": 803,
      "Ġagain": 804,
      "Ġpo": 805,
      "right": 806,
      "wn": 807,
      "ause": 808,
      "ative": 809,
      "ss": 810,
      "ĠâĢľ": 811,
      "_{\\": 812,
      "ron": 813,
      "hen": 814,
      "Ġinv": 815,
      "les": 816,
      ",\\": 817,
      "Ġhow": 818,
      "ox": 819,
      "oy": 820,
      "cal": 821,
      "Ġ[": 822,
      "ople": 823,
      "Ġrem": 824,
      "ise": 825,
      "Ġbetween": 826,
      "Ġint": 827,
      "Ġmost": 828,
      "Ġcell": 829,
      "yle": 830,
      "Ġthrough": 831,
      "Ġdiffere": 832,
      "elf": 833,
      "ward": 834,
      "Ġknow": 835,
      "ident": 836,
      "Ġsign": 837,
      "ful": 838,
      "io": 839,
      "Ġ6": 840,
      "Ġsuch": 841,
      "rm": 842,
      "ock": 843,
      "Ġdet": 844,
      "Ġshow": 845,
      "In": 846,
      "Ġsur": 847,
      "stem": 848,
      "als": 849,
      "Ġadd": 850,
      "Ġinclud": 851,
      "ĠUn": 852,
      "Ġlook": 853,
      "Ġpol": 854,
      "hes": 855,
      "ĠâĢĵ": 856,
      "19": 857,
      "Ġla": 858,
      "Ġprodu": 859,
      "ins": 860,
      "ility": 861,
      "Ġwell": 862,
      "ited": 863,
      "ational": 864,
      "Ġfollow": 865,
      "Ġdef": 866,
      "Ġform": 867,
      "Ġresult": 868,
      "ict": 869,
      "Ġpati": 870,
      "Ġuse": 871,
      "ined": 872,
      "Ġplay": 873,
      "Ġneed": 874,
      "ures": 875,
      "eg": 876,
      "Ġprov": 877,
      "ution": 878,
      "ible": 879,
      "Ġset": 880,
      "ble": 881,
      "ities": 882,
      "Ġsim": 883,
      "ng": 884,
      "Ġpeople": 885,
      "cy": 886,
      "ily": 887,
      "ix": 888,
      "ning": 889,
      "ics": 890,
      "Ġimp": 891,
      "Ġcar": 892,
      "Ġcol": 893,
      "tern": 894,
      "ym": 895,
      "Ġsupp": 896,
      "Ġused": 897,
      "Ġinf": 898,
      "led": 899,
      "imes": 900,
      "cept": 901,
      "other": 902,
      "play": 903,
      "way": 904,
      "li": 905,
      "mathb": 906,
      "Ġsee": 907,
      "uch": 908,
      "up": 909,
      "let": 910,
      "inal": 911,
      "Ġspec": 912,
      "ower": 913,
      "Ġyears": 914,
      "cess": 915,
      "?\"": 916,
      "ty": 917,
      "Ġnum": 918,
      "Ġem": 919,
      "Ġche": 920,
      "Ġsec": 921,
      "Ġend": 922,
      "Ġeffect": 923,
      "Ġdist": 924,
      "Ġpr": 925,
      "ized": 926,
      "ever": 927,
      "frac": 928,
      "Ġnow": 929,
      "ata": 930,
      "arg": 931,
      "Ġhigh": 932,
      "ments": 933,
      "gg": 934,
      "Ġsystem": 935,
      "Ġwant": 936,
      "ĊĊ": 937,
      "ife": 938,
      "Ġdown": 939,
      "Ġmon": 940,
      "Ġfound": 941,
      "Ġbefore": 942,
      "Ġlong": 943,
      "its": 944,
      "style": 945,
      "Ġbu": 946,
      "ared": 947,
      "air": 948,
      "ĠShe": 949,
      "Ġexp": 950,
      "Ġboth": 951,
      "ince": 952,
      "Ġser": 953,
      "Ġhand": 954,
      "land": 955,
      "^{\\": 956,
      "Ġeven": 957,
      "eld": 958,
      "Ġshould": 959,
      "Ġmin": 960,
      "gan": 961,
      "cent": 962,
      "Ġ7": 963,
      "dis": 964,
      "ven": 965,
      "ool": 966,
      "Ġent": 967,
      "Ġloc": 968,
      "Ġmade": 969,
      ")$": 970,
      "yl": 971,
      "\\\\": 972,
      "Ġext": 973,
      "ered": 974,
      "Ġcor": 975,
      "ave": 976,
      "ract": 977,
      "velop": 978,
      "Ġright": 979,
      "Ġevery": 980,
      "Ġway": 981,
      "ues": 982,
      "(\\": 983,
      "Ġgra": 984,
      "Ġincre": 985,
      "ĠAl": 986,
      "Ġgrou": 987,
      "Ġdec": 988,
      "Ġvery": 989,
      "cer": 990,
      "iew": 991,
      "ism": 992,
      "Ġduring": 993,
      "ection": 994,
      "Ġmake": 995,
      "Ġpatients": 996,
      "Ġfun": 997,
      "ef": 998,
      "Ġ10": 999,
      "Ġdifferent": 1000,
      "ax": 1001,
      "Ġcall": 1002,
      "Ġ18": 1003,
      "Ġear": 1004,
      "ting": 1005,
      "Ġthree": 1006,
      "ically": 1007,
      "Ġeach": 1008,
      "hip": 1009,
      "ved": 1010,
      "Ġmem": 1011,
      "der": 1012,
      "Ġsl": 1013,
      "ork": 1014,
      "Ġins": 1015,
      "Ġant": 1016,
      "Ġgu": 1017,
      "Ġmany": 1018,
      "Ġgener": 1019,
      "mathcal": 1020,
      "aking": 1021,
      "ange": 1022,
      "ient": 1023,
      "ral": 1024,
      "Ġ8": 1025,
      "Ġthough": 1026,
      "Ġbel": 1027,
      "ex": 1028,
      "Ġret": 1029,
      "Ġgl": 1030,
      "Ġbeing": 1031,
      "con": 1032,
      "Ġvar": 1033,
      "ts": 1034,
      "ases": 1035,
      "com": 1036,
      "ather": 1037,
      "Ġval": 1038,
      "Ġbecause": 1039,
      "Ġhel": 1040,
      "Ġinst": 1041,
      "ked": 1042,
      "Ġsame": 1043,
      "Ġthose": 1044,
      "Ġserv": 1045,
      "Ġref": 1046,
      "Ġwhile": 1047,
      "Ġke": 1048,
      "ug": 1049,
      "ull": 1050,
      "ason": 1051,
      "ĠAnd": 1052,
      "ĠCom": 1053,
      "Ġresp": 1054,
      "display": 1055,
      "displaystyle": 1056,
      "Ġmat": 1057,
      "left": 1058,
      "any": 1059,
      "Ġown": 1060,
      "Ġdon": 1061,
      "arch": 1062,
      "Ġrep": 1063,
      "ines": 1064,
      "Ġdep": 1065,
      "ield": 1066,
      "Ġop": 1067,
      "ale": 1068,
      "ann": 1069,
      "Ġexper": 1070,
      "Ġmuch": 1071,
      "oci": 1072,
      "und": 1073,
      "Ġpers": 1074,
      "ody": 1075,
      "Ġdevelop": 1076,
      "Ġmed": 1077,
      "âĢĵ": 1078,
      "Ġactiv": 1079,
      "Ġ'": 1080,
      "Ġfind": 1081,
      "ĠAn": 1082,
      "Ġ.": 1083,
      "=\\": 1084,
      "ash": 1085,
      "Ġgood": 1086,
      "Ġgreat": 1087,
      "Ġpoint": 1088,
      "rol": 1089,
      "pha": 1090,
      "Ġfact": 1091,
      "Ġcent": 1092,
      "els": 1093,
      "ruct": 1094,
      "sc": 1095,
      "Ġcur": 1096,
      "Ġthink": 1097,
      "oh": 1098,
      "ctions": 1099,
      "Ġnon": 1100,
      "Ġ9": 1101,
      "au": 1102,
      "amb": 1103,
      "ah": 1104,
      "ouse": 1105,
      "rop": 1106,
      "nce": 1107,
      "Ġdire": 1108,
      "yp": 1109,
      "ĠNew": 1110,
      "ck": 1111,
      "Ġgiv": 1112,
      "Ġstart": 1113,
      "Ġpar": 1114,
      "ĠYou": 1115,
      "day": 1116,
      "ross": 1117,
      "Ġusing": 1118,
      "---": 1119,
      "Ġdisc": 1120,
      "chool": 1121,
      "ium": 1122,
      "Ġsecond": 1123,
      "uss": 1124,
      "of": 1125,
      "ness": 1126,
      "ize": 1127,
      "over": 1128,
      "Ġhere": 1129,
      "Ġnumber": 1130,
      "ute": 1131,
      "Th": 1132,
      "text": 1133,
      "Ġagainst": 1134,
      "meric": 1135,
      "ished": 1136,
      "Ġconf": 1137,
      "Ġfam": 1138,
      "ulation": 1139,
      "osed": 1140,
      "ĠBut": 1141,
      "Ġhead": 1142,
      "ĠFor": 1143,
      "ving": 1144,
      "Ġlevel": 1145,
      "Ġhelp": 1146,
      "ually": 1147,
      "ars": 1148,
      "Ġaround": 1149,
      "app": 1150,
      "Ġchar": 1151,
      "Ġaut": 1152,
      "az": 1153,
      "ĠAs": 1154,
      "ration": 1155,
      "Ġstill": 1156,
      "ms": 1157,
      "ature": 1158,
      "10": 1159,
      "rest": 1160,
      "ists": 1161,
      "Ġdoes": 1162,
      "man": 1163,
      "Ġrequ": 1164,
      "Ġsol": 1165,
      "ement": 1166,
      "ively": 1167,
      "ision": 1168,
      "Ġdata": 1169,
      "Ġlast": 1170,
      "Ġmet": 1171,
      "Ġlead": 1172,
      "Ġcount": 1173,
      "erg": 1174,
      "Ġprog": 1175,
      "Ġfin": 1176,
      "min": 1177,
      "Ġcells": 1178,
      "ages": 1179,
      "ired": 1180,
      "ets": 1181,
      "Ġpub": 1182,
      "ization": 1183,
      "ĠSh": 1184,
      "Ġsmall": 1185,
      "formation": 1186,
      "Ġhum": 1187,
      "Ġposs": 1188,
      "Ġest": 1189,
      "line": 1190,
      "ee": 1191,
      "Ġday": 1192,
      "ots": 1193,
      "aw": 1194,
      "Ġtake": 1195,
      "ters": 1196,
      "ices": 1197,
      "Ġreport": 1198,
      "Ġchild": 1199,
      "Ġconst": 1200,
      "000": 1201,
      "ted": 1202,
      "ĠThey": 1203,
      "here": 1204,
      "ton": 1205,
      "Ġ199": 1206,
      "chn": 1207,
      "Ġequ": 1208,
      "ants": 1209,
      "Ġtest": 1210,
      "}}\\": 1211,
      "Ġfil": 1212,
      "oun": 1213,
      "Ġpartic": 1214,
      "Ġsom": 1215,
      "ĠPro": 1216,
      "read": 1217,
      "Ġ\\": 1218,
      "ality": 1219,
      "eta": 1220,
      "Ġ20": 1221,
      "ĠAmeric": 1222,
      "ivers": 1223,
      "ention": 1224,
      "20": 1225,
      "Ġpresent": 1226,
      "Ġed": 1227,
      "pg": 1228,
      "ple": 1229,
      "fs": 1230,
      "aj": 1231,
      "Ġinte": 1232,
      "We": 1233,
      "Ġperform": 1234,
      "ĠCon": 1235,
      "ĠThere": 1236,
      "ane": 1237,
      "Ġopen": 1238,
      "ially": 1239,
      "Ġimm": 1240,
      "ured": 1241,
      "Ġsay": 1242,
      "ier": 1243,
      "He": 1244,
      "prime": 1245,
      "Ġless": 1246,
      "raph": 1247,
      "It": 1248,
      "Ġav": 1249,
      "Ġlife": 1250,
      "Ġcour": 1251,
      "ency": 1252,
      "be": 1253,
      "Ġturn": 1254,
      "Ġstr": 1255,
      "ĠDe": 1256,
      "Ġappro": 1257,
      "ural": 1258,
      "par": 1259,
      "'d": 1260,
      "ĠHow": 1261,
      "alk": 1262,
      "Ġgroup": 1263,
      "Ġocc": 1264,
      "oot": 1265,
      "ank": 1266,
      "Ġanal": 1267,
      ")\\": 1268,
      "Ġmeth": 1269,
      "Ġrele": 1270,
      "Ġcase": 1271,
      "Ġmus": 1272,
      "Ġmain": 1273,
      "Ġrun": 1274,
      "arm": 1275,
      "$,": 1276,
      "Ġoper": 1277,
      "ĠIf": 1278,
      "Ġwom": 1279,
      "ified": 1280,
      "Ġprev": 1281,
      "ope": 1282,
      "ĠCl": 1283,
      "Ġworld": 1284,
      "ner": 1285,
      "Ġcle": 1286,
      "Ġcontin": 1287,
      "de": 1288,
      "Ġsignific": 1289,
      "atic": 1290,
      "Ġcare": 1291,
      "att": 1292,
      "ĠSe": 1293,
      "oss": 1294,
      "...": 1295,
      "Ġdel": 1296,
      "$.": 1297,
      "Ġgoing": 1298,
      "Ġresults": 1299,
      "ats": 1300,
      "Ġread": 1301,
      "outh": 1302,
      "ience": 1303,
      "ior": 1304,
      "ittle": 1305,
      "Ġteam": 1306,
      "ides": 1307,
      "ĠLe": 1308,
      "da": 1309,
      "Ġtri": 1310,
      "Ġfour": 1311,
      "ĠRe": 1312,
      "Ġwee": 1313,
      "alpha": 1314,
      "ves": 1315,
      "Ġrest": 1316,
      "Ġprocess": 1317,
      "ider": 1318,
      "Ġclass": 1319,
      "Ġsing": 1320,
      "},": 1321,
      "Ġstate": 1322,
      "Ġcre": 1323,
      "Ġinc": 1324,
      "ames": 1325,
      "Ġtoo": 1326,
      "ĠQ": 1327,
      "ately": 1328,
      "ĠAr": 1329,
      "self": 1330,
      "acter": 1331,
      "Ġdem": 1332,
      "Ġwithout": 1333,
      "Ġart": 1334,
      "Ġexpl": 1335,
      "ole": 1336,
      "ology": 1337,
      "Ġpost": 1338,
      "Ġpass": 1339,
      "alth": 1340,
      "ator": 1341,
      "Ġplace": 1342,
      "Ġbre": 1343,
      "ĠZ": 1344,
      "rid": 1345,
      "Ġsupport": 1346,
      "rent": 1347,
      "ger": 1348,
      "get": 1349,
      "ĠWh": 1350,
      "Ġleft": 1351,
      "Ġperson": 1352,
      "-\\": 1353,
      "pgfs": 1354,
      "pgfsys": 1355,
      "arge": 1356,
      "Ġsk": 1357,
      "Ġdirect": 1358,
      "Ġele": 1359,
      "ional": 1360,
      "ived": 1361,
      "ital": 1362,
      "ten": 1363,
      "Ġimport": 1364,
      "Ġsince": 1365,
      "mathbb": 1366,
      "ised": 1367,
      "Ġstudy": 1368,
      "Ġlet": 1369,
      "Ġanother": 1370,
      ".,": 1371,
      "less": 1372,
      "duced": 1373,
      "til": 1374,
      "yt": 1375,
      "Ġey": 1376,
      "Ġbest": 1377,
      "ode": 1378,
      "Ġfollowing": 1379,
      "Ġreal": 1380,
      "Ġcontrol": 1381,
      "ring": 1382,
      "iness": 1383,
      "Ġhome": 1384,
      "ided": 1385,
      "Ġsignificant": 1386,
      "Ġterm": 1387,
      "ining": 1388,
      "Ġdesc": 1389,
      "lex": 1390,
      "Ġel": 1391,
      "Ġpop": 1392,
      "50": 1393,
      "Ġfew": 1394,
      "Ġelect": 1395,
      "Ġmeas": 1396,
      "ently": 1397,
      "Ġline": 1398,
      "Ġbeh": 1399,
      "irc": 1400,
      "Ġcome": 1401,
      "Ġmark": 1402,
      "part": 1403,
      "Ġstand": 1404,
      "amma": 1405,
      "Ġpur": 1406,
      "Ġ12": 1407,
      "Ġfunction": 1408,
      "itive": 1409,
      "12": 1410,
      "Ġhist": 1411,
      "Ġbus": 1412,
      "Ġobs": 1413,
      "Ġmethod": 1414,
      "agn": 1415,
      "anc": 1416,
      "Ġdesign": 1417,
      "ilar": 1418,
      "ives": 1419,
      "ĠIs": 1420,
      "Ġbro": 1421,
      "Ġtreat": 1422,
      "ina": 1423,
      "ination": 1424,
      "iqu": 1425,
      "Ġlittle": 1426,
      "apt": 1427,
      "Ġlater": 1428,
      "Ġproble": 1429,
      "Ġnever": 1430,
      "ense": 1431,
      "ling": 1432,
      "Ġadv": 1433,
      "ĠSp": 1434,
      "Ġmust": 1435,
      "akes": 1436,
      "Ġchang": 1437,
      "Ġinformation": 1438,
      "Ġtechn": 1439,
      "bers": 1440,
      "orth": 1441,
      "Ġmight": 1442,
      "ik": 1443,
      "ething": 1444,
      "Ġcond": 1445,
      "Ġaff": 1446,
      "Ġvis": 1447,
      "Ġgrow": 1448,
      "ern": 1449,
      "Ġ198": 1450,
      "ograph": 1451,
      "Ġer": 1452,
      "ormal": 1453,
      "Ġmodel": 1454,
      "yn": 1455,
      "rum": 1456,
      "Ġincluding": 1457,
      "itions": 1458,
      "Ġallow": 1459,
      "Ġhuman": 1460,
      "ample": 1461,
      "ways": 1462,
      "Ġ&": 1463,
      "'re": 1464,
      "Ġorder": 1465,
      "hib": 1466,
      "Ġmov": 1467,
      "ript": 1468,
      "eng": 1469,
      "Ġhy": 1470,
      "ggest": 1471,
      "ĠInd": 1472,
      "+\\": 1473,
      "####": 1474,
      "}$,": 1475,
      "view": 1476,
      "Ġi": 1477,
      "Ġold": 1478,
      "Ġpri": 1479,
      "ambda": 1480,
      "Ġuntil": 1481,
      "ird": 1482,
      "vern": 1483,
      "Ġquest": 1484,
      "ĠAt": 1485,
      "11": 1486,
      "Ġwithin": 1487,
      "Ġprot": 1488,
      "Ġdidn": 1489,
      "ury": 1490,
      "ither": 1491,
      "ĠSc": 1492,
      "Ġcommun": 1493,
      "Ġgiven": 1494,
      "Ġmonth": 1495,
      "Ġseem": 1496,
      "You": 1497,
      "NA": 1498,
      "Ġwr": 1499,
      "elta": 1500,
      "ene": 1501,
      "Ġsuggest": 1502,
      "thing": 1503,
      "ray": 1504,
      "Ġcap": 1505,
      "Ġrece": 1506,
      "iet": 1507,
      "'m": 1508,
      "Ġhapp": 1509,
      "Ġbas": 1510,
      "ĠAd": 1511,
      "ains": 1512,
      "Ġpower": 1513,
      "Ġinvest": 1514,
      "}(\\": 1515,
      "Ġrecord": 1516,
      "Ġtop": 1517,
      "ched": 1518,
      "ability": 1519,
      "rel": 1520,
      "riend": 1521,
      "Ġpot": 1522,
      "arn": 1523,
      "Ġaway": 1524,
      "Ġlow": 1525,
      "ably": 1526,
      "mathbf": 1527,
      "pro": 1528,
      "eral": 1529,
      "}=": 1530,
      "Ġnear": 1531,
      "mu": 1532,
      "Ġput": 1533,
      "Ġlarge": 1534,
      "Ġgot": 1535,
      "Ġsever": 1536,
      "ained": 1537,
      "Ġknown": 1538,
      "ho": 1539,
      "Ġschool": 1540,
      "ype": 1541,
      "Ġtr": 1542,
      "ected": 1543,
      "Ġstat": 1544,
      "18": 1545,
      "oint": 1546,
      "Ġlight": 1547,
      "Ġsomething": 1548,
      "Ġet": 1549,
      "ĠBl": 1550,
      "Ġmen": 1551,
      "Ġgovern": 1552,
      "Ġes": 1553,
      "Ġdays": 1554,
      "Ġprogram": 1555,
      "Ġcalled": 1556,
      "Ġbo": 1557,
      "atch": 1558,
      "Ġcal": 1559,
      "ission": 1560,
      "ĠOn": 1561,
      "ajor": 1562,
      "Ġprof": 1563,
      "Ġwater": 1564,
      "ĠThese": 1565,
      "oke": 1566,
      "Ġgame": 1567,
      "Ġ15": 1568,
      "Ġsw": 1569,
      "Ġmean": 1570,
      "resent": 1571,
      "sp": 1572,
      "uro": 1573,
      "Ġfamily": 1574,
      "ote": 1575,
      "iversity": 1576,
      "ĠAll": 1577,
      "hy": 1578,
      "me": 1579,
      "ential": 1580,
      "by": 1581,
      "for": 1582,
      "eter": 1583,
      "ung": 1584,
      "icro": 1585,
      "Ġprote": 1586,
      "ley": 1587,
      "oid": 1588,
      "Ġleg": 1589,
      "Ġside": 1590,
      "Ġdeterm": 1591,
      "ression": 1592,
      "iod": 1593,
      "Ġword": 1594,
      "Ġobserv": 1595,
      "Ġorgan": 1596,
      "This": 1597,
      "Ġident": 1598,
      "box": 1599,
      "urther": 1600,
      "Ġbuild": 1601,
      "Ġdra": 1602,
      "ĠâĢĶ": 1603,
      "Ġaddition": 1604,
      "inc": 1605,
      "Ġsit": 1606,
      "Ġeas": 1607,
      "ris": 1608,
      "}$.": 1609,
      "Ġrad": 1610,
      "igma": 1611,
      "Ġnext": 1612,
      "201": 1613,
      "Ġbelie": 1614,
      "Ġlist": 1615,
      "Ġseveral": 1616,
      "].": 1617,
      "oper": 1618,
      "Ġreally": 1619,
      "Ġtook": 1620,
      "abl": 1621,
      "Ġthought": 1622,
      "ohn": 1623,
      "ccess": 1624,
      "}^{\\": 1625,
      "Ġreturn": 1626,
      "Ġprop": 1627,
      "aces": 1628,
      "mathrm": 1629,
      "Ġtry": 1630,
      "enn": 1631,
      "Ġcame": 1632,
      "Ġproper": 1633,
      "Ġcer": 1634,
      "ret": 1635,
      "Ġorig": 1636,
      "Ġname": 1637,
      "oad": 1638,
      "Ġalong": 1639,
      "ering": 1640,
      "Ġappear": 1641,
      "Ġmar": 1642,
      "resp": 1643,
      "Ġhard": 1644,
      "por": 1645,
      "Ġimportant": 1646,
      "stand": 1647,
      "bs": 1648,
      "Ġbetter": 1649,
      "Ã©": 1650,
      "Ġarea": 1651,
      "'ll": 1652,
      "Ġtem": 1653,
      "Ġfree": 1654,
      "Ġpublic": 1655,
      "ĠMar": 1656,
      "Ġopt": 1657,
      "lu": 1658,
      "ĠX": 1659,
      "ysis": 1660,
      "rad": 1661,
      "rist": 1662,
      "gen": 1663,
      "Ġfre": 1664,
      "Ġmult": 1665,
      "Ġlaw": 1666,
      "Ġactivity": 1667,
      "Ġbook": 1668,
      "Ġtre": 1669,
      "ended": 1670,
      "reen": 1671,
      "Ġfeel": 1672,
      "},\\": 1673,
      "ember": 1674,
      "Ġide": 1675,
      "Ġ=": 1676,
      "Ġinterest": 1677,
      "ological": 1678,
      "Ġhig": 1679,
      "ĠPh": 1680,
      "Ġrespect": 1681,
      "sh": 1682,
      "Ġsimilar": 1683,
      "pped": 1684,
      "Ġlocal": 1685,
      "ĠCol": 1686,
      "mber": 1687,
      "Ġoffic": 1688,
      "oice": 1689,
      "Ġ+": 1690,
      "Ġblood": 1691,
      "Ġlim": 1692,
      "ried": 1693,
      "une": 1694,
      "Ġopp": 1695,
      "ording": 1696,
      "Ġsingle": 1697,
      "med": 1698,
      "idence": 1699,
      "Ġchildren": 1700,
      "alf": 1701,
      "Ġ16": 1702,
      "Ġ17": 1703,
      "ĠHowever": 1704,
      "14": 1705,
      "ott": 1706,
      "Ġ197": 1707,
      "co": 1708,
      "ead": 1709,
      "put": 1710,
      "ĠNo": 1711,
      "Ġindic": 1712,
      "Ġdescrib": 1713,
      "Ġdue": 1714,
      "Ġbra": 1715,
      "ĠBe": 1716,
      "fer": 1717,
      "col": 1718,
      "epend": 1719,
      "tal": 1720,
      "Ġve": 1721,
      "Ġcurrent": 1722,
      "ĠAmerican": 1723,
      "Ġthings": 1724,
      "Ġkeep": 1725,
      "Ġmajor": 1726,
      "rap": 1727,
      "ened": 1728,
      "ĠWhen": 1729,
      ".âĢĿ": 1730,
      "val": 1731,
      "Ġcharacter": 1732,
      "15": 1733,
      "Ġproduct": 1734,
      "Ġann": 1735,
      "pi": 1736,
      "Ġearly": 1737,
      "Ġpress": 1738,
      "Ġbody": 1739,
      "Ġbusiness": 1740,
      "Ġalways": 1741,
      "ards": 1742,
      "mon": 1743,
      "bar": 1744,
      "illion": 1745,
      "Ġiss": 1746,
      "phi": 1747,
      "Ġinvol": 1748,
      "uck": 1749,
      "Ġair": 1750,
      "ged": 1751,
      "though": 1752,
      "onst": 1753,
      "ĠEng": 1754,
      "Ġfield": 1755,
      "Ġbased": 1756,
      "Ġshort": 1757,
      "ify": 1758,
      "ffic": 1759,
      "Ġtreatment": 1760,
      "Ġpossible": 1761,
      "Ġassoci": 1762,
      "ĠPl": 1763,
      "work": 1764,
      "Ġperiod": 1765,
      "13": 1766,
      "ĠUnited": 1767,
      "arent": 1768,
      "lambda": 1769,
      "Ġprom": 1770,
      "Ġobtain": 1771,
      "Ġtold": 1772,
      "nal": 1773,
      "aim": 1774,
      "Ġ14": 1775,
      "Ġproject": 1776,
      "Ġtell": 1777,
      "ours": 1778,
      "Ġfriend": 1779,
      "Ġprob": 1780,
      "ergy": 1781,
      "Ġwar": 1782,
      "ivid": 1783,
      "hor": 1784,
      "son": 1785,
      "Ġstruct": 1786,
      "Ġroom": 1787,
      "ored": 1788,
      "Ġep": 1789,
      "200": 1790,
      "Ġspe": 1791,
      "iment": 1792,
      "Ġfar": 1793,
      "Ġmom": 1794,
      "Ġseason": 1795,
      "Ġmove": 1796,
      "ĠEx": 1797,
      "aps": 1798,
      "Ġface": 1799,
      "Ġcases": 1800,
      "Ġwent": 1801,
      "Ġplan": 1802,
      "most": 1803,
      "Ġleast": 1804,
      "ued": 1805,
      "ĠJohn": 1806,
      "Ġeyes": 1807,
      "augh": 1808,
      "ai": 1809,
      "}}{": 1810,
      "Ġweek": 1811,
      "16": 1812,
      "Ġz": 1813,
      "Ġchange": 1814,
      "ĠTo": 1815,
      "arrow": 1816,
      "Ġpa": 1817,
      "'ve": 1818,
      "Ġwin": 1819,
      "Ġvol": 1820,
      "set": 1821,
      "Ġcomb": 1822,
      "Ġtimes": 1823,
      "Ġseen": 1824,
      "ream": 1825,
      "igure": 1826,
      "Ġ13": 1827,
      "Ġmil": 1828,
      "ush": 1829,
      "ĠUniversity": 1830,
      "Ġdri": 1831,
      "Ġsuccess": 1832,
      "Ġ||": 1833,
      "Ġgr": 1834,
      "ploy": 1835,
      "rict": 1836,
      "Ġhealth": 1837,
      "ances": 1838,
      "Ġenough": 1839,
      "ĠThat": 1840,
      "Ġable": 1841,
      "âĢľ": 1842,
      "Ġgive": 1843,
      "side": 1844,
      "ĠII": 1845,
      "ĠOr": 1846,
      "ĠUS": 1847,
      "aken": 1848,
      "Ġrate": 1849,
      "ino": 1850,
      "where": 1851,
      "Ġasked": 1852,
      "ĠMay": 1853,
      "ison": 1854,
      "Ġfull": 1855,
      "leq": 1856,
      "Ġclear": 1857,
      "Ġbig": 1858,
      "Ġsat": 1859,
      "Ġgovernment": 1860,
      "}}$": 1861,
      "Ġnormal": 1862,
      "plic": 1863,
      "usion": 1864,
      "Ġland": 1865,
      "Ġmanag": 1866,
      "Ġnight": 1867,
      "Ġkill": 1868,
      "ĠHis": 1869,
      "ball": 1870,
      "Ġeither": 1871,
      "Ġexam": 1872,
      "ert": 1873,
      "rack": 1874,
      "Ġconsider": 1875,
      "ober": 1876,
      "hem": 1877,
      ",âĢĿ": 1878,
      "gin": 1879,
      "Ġconcent": 1880,
      "Ġnet": 1881,
      "17": 1882,
      "ilon": 1883,
      "Ġdev": 1884,
      "Ġavail": 1885,
      "Ġdise": 1886,
      "idd": 1887,
      "iver": 1888,
      "Ġexpect": 1889,
      "Ġris": 1890,
      "ctor": 1891,
      "ians": 1892,
      "osp": 1893,
      "Ġparticular": 1894,
      "ucle": 1895,
      "osis": 1896,
      "ĠCar": 1897,
      "iving": 1898,
      "aster": 1899,
      "Ġoccur": 1900,
      "iron": 1901,
      "}_{\\": 1902,
      "olds": 1903,
      "ateg": 1904,
      "Ġimpro": 1905,
      "lement": 1906,
      "Ġeng": 1907,
      "iation": 1908,
      "Ġcourse": 1909,
      "Ġfeat": 1910,
      "cle": 1911,
      "Ġyoung": 1912,
      "Ġmicro": 1913,
      "ister": 1914,
      "Ġlab": 1915,
      "Âł": 1916,
      "Ġcr": 1917,
      "ification": 1918,
      "ones": 1919,
      "Ġ30": 1920,
      "ien": 1921,
      "beta": 1922,
      "aut": 1923,
      "atory": 1924,
      "ribut": 1925,
      "Ġwon": 1926,
      "Ġrepresent": 1927,
      "Ġoften": 1928,
      "ney": 1929,
      "Ġfive": 1930,
      "Ġwomen": 1931,
      "Ġsure": 1932,
      "not": 1933,
      "imal": 1934,
      "Ġcompany": 1935,
      "Ġview": 1936,
      "Ġamong": 1937,
      "Ġgeneral": 1938,
      "Â»": 1939,
      "iting": 1940,
      "Ġtw": 1941,
      "Ġinit": 1942,
      "iously": 1943,
      "ĠCan": 1944,
      "Ġhaving": 1945,
      "onse": 1946,
      "Ġfac": 1947,
      "Ġabove": 1948,
      "ament": 1949,
      "Ġfore": 1950,
      "Ġbi": 1951,
      "Ġcult": 1952,
      "\".": 1953,
      "Ġhouse": 1954,
      "ĠSo": 1955,
      "Ġstra": 1956,
      "orld": 1957,
      "25": 1958,
      "Ġseries": 1959,
      "Ġbecame": 1960,
      "Ġdeg": 1961,
      "Ġage": 1962,
      "bol": 1963,
      "Ġdiscuss": 1964,
      "|\\": 1965,
      "ales": 1966,
      "Ġrat": 1967,
      "ĠFran": 1968,
      "Ġtru": 1969,
      "rew": 1970,
      "30": 1971,
      "oph": 1972,
      "Â«": 1973,
      "Ġspace": 1974,
      "wards": 1975,
      "Ġver": 1976,
      "eb": 1977,
      "Ġtyp": 1978,
      "Ġcy": 1979,
      "Ġacross": 1980,
      "aring": 1981,
      "ready": 1982,
      "ries": 1983,
      "What": 1984,
      "oney": 1985,
      "Ġvers": 1986,
      "She": 1987,
      "Ġstrong": 1988,
      "Ġpolit": 1989,
      "Ġlevels": 1990,
      "Ġsym": 1991,
      "ĠTe": 1992,
      "ival": 1993,
      "Ġpred": 1994,
      "ĠComm": 1995,
      "Ġ196": 1996,
      "ples": 1997,
      "ending": 1998,
      "Ġacid": 1999,
      "Ġevent": 2000,
      "Ġeffects": 2001,
      "Ġcaus": 2002,
      "rang": 2003,
      "elt": 2004,
      "ware": 2005,
      "Ġexample": 2006,
      "Ġlooked": 2007,
      "ows": 2008,
      "iam": 2009,
      "Ġprim": 2010,
      "Ġstop": 2011,
      "ĠAfter": 2012,
      "Ġtotal": 2013,
      "ividual": 2014,
      "ories": 2015,
      "ront": 2016,
      "big": 2017,
      "eps": 2018,
      "Ġtype": 2019,
      "Ġmass": 2020,
      "ocial": 2021,
      "ĠĠĠĠ": 2022,
      "Ġinvestig": 2023,
      "ume": 2024,
      "rated": 2025,
      "irl": 2026,
      "Ġdeath": 2027,
      "ery": 2028,
      "etic": 2029,
      "Ġincreased": 2030,
      "Ġcity": 2031,
      "sigma": 2032,
      "erence": 2033,
      "Ġcost": 2034,
      "ique": 2035,
      "Ġconn": 2036,
      "Ġonce": 2037,
      "As": 2038,
      "__": 2039,
      "22": 2040,
      "ilt": 2041,
      "Ġphys": 2042,
      "Ġsens": 2043,
      "duct": 2044,
      "Ġmot": 2045,
      "Ġcertain": 2046,
      "Ġdevelopment": 2047,
      "gether": 2048,
      "Ġavailable": 2049,
      "Ġtogether": 2050,
      "amed": 2051,
      "Ġlarg": 2052,
      "If": 2053,
      "Ġproblem": 2054,
      "}{\\": 2055,
      "Ġlove": 2056,
      "âĢĶ": 2057,
      "minist": 2058,
      "Ġ11": 2059,
      "Ġpain": 2060,
      "dd": 2061,
      "Ġabs": 2062,
      "Ġpract": 2063,
      "face": 2064,
      "action": 2065,
      "Ġhalf": 2066,
      "Ġincrease": 2067,
      "rug": 2068,
      "Ġthing": 2069,
      "Ġfilm": 2070,
      "olution": 2071,
      "Ġheart": 2072,
      "Ġalready": 2073,
      "Ġrese": 2074,
      "Ġvalue": 2075,
      "Ġattack": 2076,
      "gamma": 2077,
      "ont": 2078,
      "St": 2079,
      "Ġsent": 2080,
      "ilde": 2081,
      "Ġfurther": 2082,
      "Ġchanges": 2083,
      "Ġrespons": 2084,
      "omy": 2085,
      "Ġlot": 2086,
      "Ġwhy": 2087,
      "Ġbegan": 2088,
      "Ġcomplet": 2089,
      "duction": 2090,
      "Ġcountry": 2091,
      "icle": 2092,
      "Ġunderstand": 2093,
      "Ġdone": 2094,
      "Ġcrit": 2095,
      "ety": 2096,
      "Ġcou": 2097,
      "Ġmaking": 2098,
      "Ġsum": 2099,
      "Ġpast": 2100,
      "Ġkind": 2101,
      "Ġcomput": 2102,
      "Ġsubject": 2103,
      "ogn": 2104,
      "aff": 2105,
      "Ġbecome": 2106,
      "Ġsuper": 2107,
      "Ġport": 2108,
      "sy": 2109,
      "Ġcamp": 2110,
      "reg": 2111,
      "Ġcommon": 2112,
      "Ġever": 2113,
      "aining": 2114,
      "Ġinhib": 2115,
      "ror": 2116,
      "ribution": 2117,
      "Ġspecific": 2118,
      "ga": 2119,
      "ĠOne": 2120,
      "Ġben": 2121,
      "Ġsix": 2122,
      "Ġfail": 2123,
      "Ġmeans": 2124,
      "ches": 2125,
      "Ġresponse": 2126,
      "Ġprovide": 2127,
      "iol": 2128,
      "But": 2129,
      "Ġhigher": 2130,
      "Ġhimself": 2131,
      "ĠStates": 2132,
      "Ġsays": 2133,
      "Ġlo": 2134,
      "cd": 2135,
      "Ġvir": 2136,
      "ĠWith": 2137,
      "rate": 2138,
      "uation": 2139,
      "^{-": 2140,
      "ped": 2141,
      "Ġindividual": 2142,
      "Ġmonths": 2143,
      "ressed": 2144,
      "empt": 2145,
      "And": 2146,
      "Ġprotein": 2147,
      "pm": 2148,
      "ulated": 2149,
      "ĠChrist": 2150,
      "Ġpay": 2151,
      "Ġmoment": 2152,
      "ĠWhat": 2153,
      "sum": 2154,
      "onal": 2155,
      "Ġsound": 2156,
      "used": 2157,
      "ogen": 2158,
      "Ġhowever": 2159,
      "verage": 2160,
      "Ġapplic": 2161,
      "lor": 2162,
      "Ġmeet": 2163,
      "Ġexc": 2164,
      "Ġphot": 2165,
      "!\"": 2166,
      "ari": 2167,
      "ape": 2168,
      "Ġcirc": 2169,
      "ĠRes": 2170,
      "inv": 2171,
      "itor": 2172,
      "Ġmater": 2173,
      "Ġsour": 2174,
      "There": 2175,
      "Ġalmost": 2176,
      "oor": 2177,
      "theta": 2178,
      "ached": 2179,
      "ĠCent": 2180,
      "Ġenergy": 2181,
      "ster": 2182,
      "Ġanalysis": 2183,
      "Ġrole": 2184,
      "}+": 2185,
      "Ġothers": 2186,
      "Ġservice": 2187,
      "Ġwind": 2188,
      "Ġrepl": 2189,
      "che": 2190,
      "Ġshown": 2191,
      "Ġspecial": 2192,
      "Ġdom": 2193,
      "ĠSte": 2194,
      "oses": 2195,
      "osition": 2196,
      "Ġrelations": 2197,
      "asing": 2198,
      "Ġwa": 2199,
      "lection": 2200,
      "rown": 2201,
      "Ġgroups": 2202,
      "uk": 2203,
      "ators": 2204,
      "aced": 2205,
      "ĠMr": 2206,
      "ER": 2207,
      "stit": 2208,
      "Ġpath": 2209,
      "Ġmembers": 2210,
      ".'": 2211,
      "Ġdisease": 2212,
      "af": 2213,
      "tt": 2214,
      "chan": 2215,
      "rho": 2216,
      "ips": 2217,
      "Ġblack": 2218,
      "Ġmind": 2219,
      "bl": 2220,
      "Ġsite": 2221,
      "Ġclaim": 2222,
      "ĠWar": 2223,
      "istic": 2224,
      "Ġdecre": 2225,
      "Ġshowed": 2226,
      "Ġlower": 2227,
      "Ġsaw": 2228,
      "For": 2229,
      "ruction": 2230,
      "Ġvarious": 2231,
      "Ġobserved": 2232,
      "ĠGe": 2233,
      "Ġtaken": 2234,
      "Ġlik": 2235,
      "ĠWorld": 2236,
      "ato": 2237,
      "Ġheld": 2238,
      "ĠYork": 2239,
      "Ġsequ": 2240,
      "ague": 2241,
      "Ġter": 2242,
      "Ġwrit": 2243,
      "Ġformer": 2244,
      "Ġ24": 2245,
      "ivity": 2246,
      "ĠRep": 2247,
      "ĠAm": 2248,
      "bed": 2249,
      "Ġexist": 2250,
      "ependent": 2251,
      "Ġple": 2252,
      "dro": 2253,
      "angu": 2254,
      "ustom": 2255,
      "iter": 2256,
      "Ġmusic": 2257,
      "Ġpercent": 2258,
      "hing": 2259,
      "Ġestabl": 2260,
      "Ġworking": 2261,
      "bum": 2262,
      "Ġil": 2263,
      "Ġcalc": 2264,
      "ude": 2265,
      "ĠMan": 2266,
      "AT": 2267,
      ".$": 2268,
      "roll": 2269,
      "utes": 2270,
      "ĠGod": 2271,
      "Ġquestion": 2272,
      "Ġinclude": 2273,
      "Ġstarted": 2274,
      "ension": 2275,
      "Ġfoot": 2276,
      "Ġconcer": 2277,
      "Ġcompared": 2278,
      "asc": 2279,
      "ĠAust": 2280,
      "urope": 2281,
      "ze": 2282,
      "ĠThen": 2283,
      "\",": 2284,
      "Ġturned": 2285,
      "omm": 2286,
      "urs": 2287,
      "ule": 2288,
      "Ġcoll": 2289,
      "oon": 2290,
      "Ġfrequ": 2291,
      "Ġenc": 2292,
      "Ġbehind": 2293,
      "ography": 2294,
      "Ġcomplex": 2295,
      "ores": 2296,
      "Ġposition": 2297,
      "sequ": 2298,
      "Ġobject": 2299,
      "Ġtalk": 2300,
      "Ġreported": 2301,
      "ules": 2302,
      "Ġreason": 2303,
      "quad": 2304,
      "osph": 2305,
      "ask": 2306,
      "Ġdou": 2307,
      "Ġwhether": 2308,
      "Ġknew": 2309,
      "ĠSu": 2310,
      "Ġ25": 2311,
      "itary": 2312,
      "})$": 2313,
      "ibility": 2314,
      "ĠAss": 2315,
      "cing": 2316,
      "ĠPr": 2317,
      "sel": 2318,
      "itted": 2319,
      "wh": 2320,
      "ĠGu": 2321,
      "Ġhold": 2322,
      "Ġdoor": 2323,
      "Ġlay": 2324,
      "omet": 2325,
      "bo": 2326,
      "Ġfra": 2327,
      "Ġaccount": 2328,
      "tau": 2329,
      "Ġcross": 2330,
      "Ġvari": 2331,
      "Ġhistory": 2332,
      "Ġfoc": 2333,
      "use": 2334,
      "Ġcompet": 2335,
      "Ġmillion": 2336,
      "Ġclose": 2337,
      "Ġfinal": 2338,
      "ev": 2339,
      "Ġarm": 2340,
      "reet": 2341,
      "ĠJan": 2342,
      "Ġcut": 2343,
      "Ġestim": 2344,
      "uture": 2345,
      "23": 2346,
      "ĠNational": 2347,
      "Ġthird": 2348,
      "xim": 2349,
      "Ġlooking": 2350,
      "Ġste": 2351,
      "Ġaccess": 2352,
      "ising": 2353,
      "Ġyet": 2354,
      "ĠBrit": 2355,
      "Ġadminist": 2356,
      "Ġmarket": 2357,
      "Ġsil": 2358,
      "Ġweight": 2359,
      "oma": 2360,
      "Ġauthor": 2361,
      "delta": 2362,
      "chie": 2363,
      "atter": 2364,
      "Ġred": 2365,
      "cret": 2366,
      "ĠHer": 2367,
      "urch": 2368,
      "Ġupon": 2369,
      "Ġemploy": 2370,
      "Ġsn": 2371,
      "Ġtrad": 2372,
      "lish": 2373,
      "Ġassociated": 2374,
      "Ġexperience": 2375,
      "Ġprofess": 2376,
      "Ġwanted": 2377,
      "sw": 2378,
      "ensive": 2379,
      "Ġband": 2380,
      "Ġ194": 2381,
      "ublic": 2382,
      "Ġsize": 2383,
      "Ġsong": 2384,
      "Ġvalues": 2385,
      "ler": 2386,
      "Ġpul": 2387,
      "Ġri": 2388,
      "Ġdrug": 2389,
      "Ġmoney": 2390,
      "Ġparam": 2391,
      "Ġmaterial": 2392,
      "Ch": 2393,
      "ĠGerm": 2394,
      "alt": 2395,
      "}=\\": 2396,
      "Ġstory": 2397,
      "ift": 2398,
      "ike": 2399,
      "24": 2400,
      "ĠBy": 2401,
      "Ġclin": 2402,
      "lected": 2403,
      "ids": 2404,
      "Ġbit": 2405,
      "Ġdam": 2406,
      "Ġwoman": 2407,
      "ĠEn": 2408,
      "Ġden": 2409,
      "Ġquick": 2410,
      "Ġaction": 2411,
      "Ġjob": 2412,
      "ĠHar": 2413,
      "Ġ100": 2414,
      "ĠMc": 2415,
      "Ġcreat": 2416,
      "Ġvide": 2417,
      "Ġflu": 2418,
      "Ġdetail": 2419,
      "hern": 2420,
      "Ġbound": 2421,
      "anced": 2422,
      "ĠCo": 2423,
      "}-": 2424,
      "times": 2425,
      "Ġ,": 2426,
      "Ġder": 2427,
      "Ġsoft": 2428,
      "respond": 2429,
      "Ġdemonst": 2430,
      "ges": 2431,
      "ĠAb": 2432,
      "hel": 2433,
      "Ġfood": 2434,
      "{{": 2435,
      "year": 2436,
      "ĠWill": 2437,
      "Ġrange": 2438,
      "ĠMy": 2439,
      "Ġsaf": 2440,
      "Ġneg": 2441,
      "rem": 2442,
      "Ġlearn": 2443,
      "Ġstudies": 2444,
      "rote": 2445,
      "inn": 2446,
      "$-": 2447,
      "Ġ--": 2448,
      "Ġmeasure": 2449,
      "Ġreview": 2450,
      "ĠSouth": 2451,
      "ĠCal": 2452,
      "ili": 2453,
      "pec": 2454,
      "Ġdiv": 2455,
      "iple": 2456,
      "Ġfall": 2457,
      "Ġpotential": 2458,
      "ĠEurope": 2459,
      "idered": 2460,
      "ument": 2461,
      "ĠJu": 2462,
      "/-": 2463,
      "ortun": 2464,
      "Ġamount": 2465,
      "Ġnat": 2466,
      "uff": 2467,
      "Ġground": 2468,
      "orph": 2469,
      "Ġtum": 2470,
      "ony": 2471,
      "Ġdescribed": 2472,
      "Ġregion": 2473,
      "Ġanything": 2474,
      "Ġfelt": 2475,
      "lim": 2476,
      "Ġang": 2477,
      "Ġfather": 2478,
      "Ġreceived": 2479,
      "viron": 2480,
      "Ġsocial": 2481,
      "Ġinflu": 2482,
      "})\\": 2483,
      "Ġhands": 2484,
      "overed": 2485,
      "21": 2486,
      "ĠMe": 2487,
      "inding": 2488,
      "Ġrather": 2489,
      "Ġclos": 2490,
      "fully": 2491,
      "On": 2492,
      "Ġconv": 2493,
      "An": 2494,
      "Ġresearch": 2495,
      "Ġhours": 2496,
      "Ġson": 2497,
      "Ġeval": 2498,
      "ĠPar": 2499,
      "Ġperformance": 2500,
      "urity": 2501,
      "Ġfront": 2502,
      "ĠCount": 2503,
      "Ġwall": 2504,
      "Ġbar": 2505,
      "Ġcommunity": 2506,
      "partial": 2507,
      "emb": 2508,
      "Ġappe": 2509,
      "omes": 2510,
      "Ġreleased": 2511,
      "Ġintro": 2512,
      "Ġnucle": 2513,
      "ĠPol": 2514,
      "ST": 2515,
      "Ġwhole": 2516,
      "Ġdoing": 2517,
      "Ġnothing": 2518,
      "lete": 2519,
      "Ġobtained": 2520,
      "Ġwords": 2521,
      "Ġdeb": 2522,
      "Ġpaper": 2523,
      "ĠĊ": 2524,
      "Ġalbum": 2525,
      "Ġsepar": 2526,
      "Ġ50": 2527,
      "beg": 2528,
      "equ": 2529,
      "ption": 2530,
      "roph": 2531,
      "back": 2532,
      "na": 2533,
      "Ġbegin": 2534,
      "ĠNorth": 2535,
      "Ã²": 2536,
      "rix": 2537,
      "Ġfire": 2538,
      "Ġproduction": 2539,
      "Ġimmun": 2540,
      "Ġjo": 2541,
      "ĠEd": 2542,
      "Ġmechan": 2543,
      "Ġreve": 2544,
      "color": 2545,
      "Ġloss": 2546,
      "Ġtown": 2547,
      "Ġpoints": 2548,
      "Ġconditions": 2549,
      "iding": 2550,
      "Ġgrowth": 2551,
      "Ġdr": 2552,
      "Ġwasn": 2553,
      "Ġstudents": 2554,
      "Ġfeatures": 2555,
      "Ġill": 2556,
      "Ġhyp": 2557,
      "Ġgave": 2558,
      "Ġtoday": 2559,
      ");": 2560,
      "Ġquant": 2561,
      "ĠSec": 2562,
      "Ġmother": 2563,
      "Ġsignificantly": 2564,
      "Ġ+/-": 2565,
      "Ġshows": 2566,
      "Ġconsidered": 2567,
      "artment": 2568,
      "uary": 2569,
      "Ġplayed": 2570,
      "var": 2571,
      "head": 2572,
      "Ġcustom": 2573,
      "99": 2574,
      "Ġfund": 2575,
      "icult": 2576,
      "Ġentire": 2577,
      "ĠAug": 2578,
      "ĠSchool": 2579,
      "No": 2580,
      "Ġaccording": 2581,
      "Ġlate": 2582,
      "ĠState": 2583,
      "va": 2584,
      "ĠIm": 2585,
      "Ġbelow": 2586,
      "aled": 2587,
      "Ġsus": 2588,
      "inary": 2589,
      "Ġdeal": 2590,
      "Ġtit": 2591,
      "Ġpriv": 2592,
      "het": 2593,
      "omega": 2594,
      "Ġecon": 2595,
      "Ġwhite": 2596,
      "ĠâĢĺ": 2597,
      "Ġgirl": 2598,
      "Ġapproach": 2599,
      "invoke": 2600,
      "ĠBar": 2601,
      "ening": 2602,
      "chi": 2603,
      "Ġfuture": 2604,
      "Ġbr": 2605,
      "ength": 2606,
      "erve": 2607,
      "Ġnecess": 2608,
      "Ġur": 2609,
      "Ġpopulation": 2610,
      "ĠPres": 2611,
      "Ġstim": 2612,
      "Ġstudied": 2613,
      "ables": 2614,
      "Ġadded": 2615,
      "rand": 2616,
      "ĠQu": 2617,
      "Ġx": 2618,
      "bm": 2619,
      "ĠCity": 2620,
      "edi": 2621,
      "Ġflow": 2622,
      "Ġconsist": 2623,
      "ĠSy": 2624,
      "ese": 2625,
      "ying": 2626,
      "Ġheav": 2627,
      "raft": 2628,
      "Ġmiss": 2629,
      "Ġpresence": 2630,
      "Ġservices": 2631,
      "Ġrecogn": 2632,
      "Ġdest": 2633,
      "Ġcard": 2634,
      "ills": 2635,
      "omic": 2636,
      "Ġperf": 2637,
      "su": 2638,
      "Ġintern": 2639,
      "ĠPer": 2640,
      "attle": 2641,
      "Ġsystems": 2642,
      "Ġbuilding": 2643,
      "ief": 2644,
      "Ġdepend": 2645,
      "Ġlive": 2646,
      "Ġblock": 2647,
      "ros": 2648,
      "Ġdark": 2649,
      "fra": 2650,
      "lege": 2651,
      "Ġrelease": 2652,
      "Ġtraining": 2653,
      "Ġrecept": 2654,
      "Ġbelieve": 2655,
      "27": 2656,
      "umb": 2657,
      "itten": 2658,
      "ties": 2659,
      "Ġtaking": 2660,
      "pril": 2661,
      "ops": 2662,
      "ĠSept": 2663,
      "Ġrelationship": 2664,
      "Ġpressure": 2665,
      "Ġfav": 2666,
      "Ġantib": 2667,
      "28": 2668,
      "######": 2669,
      "ella": 2670,
      "ĠGen": 2671,
      "ĠOct": 2672,
      "Ġmakes": 2673,
      "ana": 2674,
      "ĠNe": 2675,
      "amm": 2676,
      "Ġrelated": 2677,
      "go": 2678,
      "ilities": 2679,
      "Ġarg": 2680,
      "ĠEm": 2681,
      "ĠMarch": 2682,
      "Ġeduc": 2683,
      "Ġworks": 2684,
      "Ġterms": 2685,
      "Ġlangu": 2686,
      "like": 2687,
      "ixed": 2688,
      "fl": 2689,
      "Ġminutes": 2690,
      "Ġidea": 2691,
      "imum": 2692,
      "acy": 2693,
      "Ġvoice": 2694,
      "rast": 2695,
      "irm": 2696,
      "ground": 2697,
      "Ġindust": 2698,
      "rapy": 2699,
      "Ġbehav": 2700,
      "rect": 2701,
      "Ġattempt": 2702,
      "Ġcapt": 2703,
      "eters": 2704,
      "Al": 2705,
      "vironment": 2706,
      "izing": 2707,
      "ĠAf": 2708,
      "Ġnetwork": 2709,
      "nces": 2710,
      "AR": 2711,
      "astic": 2712,
      "Ġoriginal": 2713,
      "orts": 2714,
      "ĊĊĊ": 2715,
      "itting": 2716,
      "ano": 2717,
      "Ġdifficult": 2718,
      "Ġrequire": 2719,
      "Ġsurface": 2720,
      "Ġstructure": 2721,
      "Ġmax": 2722,
      "Ġself": 2723,
      "Ġhyper": 2724,
      "Ġprobably": 2725,
      "Ġled": 2726,
      "Ġachie": 2727,
      "Ġkey": 2728,
      "Ġplas": 2729,
      "}{}{": 2730,
      "zym": 2731,
      "Ġrequired": 2732,
      "ĠEl": 2733,
      "Ġincluded": 2734,
      "ĠApp": 2735,
      "Ġgames": 2736,
      "ĠCor": 2737,
      "ĠJune": 2738,
      "II": 2739,
      "Ġdeep": 2740,
      "Ġcorrespond": 2741,
      "40": 2742,
      "fty": 2743,
      "Ġcoun": 2744,
      "Ġfib": 2745,
      "Ġcat": 2746,
      "Ġelse": 2747,
      "Ġask": 2748,
      "Ġactually": 2749,
      "Ġsection": 2750,
      "How": 2751,
      "aul": 2752,
      "ĠKing": 2753,
      "sub": 2754,
      "Ġproduced": 2755,
      "ply": 2756,
      "Delta": 2757,
      "Ġstri": 2758,
      "tilde": 2759,
      "Ġfollowed": 2760,
      "Ġfem": 2761,
      "oms": 2762,
      "inally": 2763,
      "Ġbed": 2764,
      "opy": 2765,
      "Ġsimple": 2766,
      "oe": 2767,
      "Ġlikely": 2768,
      "Ġdoesn": 2769,
      "Ġmatter": 2770,
      "Ġinj": 2771,
      "oved": 2772,
      "kn": 2773,
      "Ġ/": 2774,
      "Ġcontent": 2775,
      "Ġmess": 2776,
      "itch": 2777,
      "ump": 2778,
      "nu": 2779,
      "Ġbreak": 2780,
      "Ġsex": 2781,
      "60": 2782,
      "ĠRuss": 2783,
      "Ġstay": 2784,
      "Ġevidence": 2785,
      "airs": 2786,
      "ada": 2787,
      "erc": 2788,
      "selves": 2789,
      "Ġpredict": 2790,
      "ĠAugust": 2791,
      "That": 2792,
      "ocyt": 2793,
      "Ġpolic": 2794,
      "Ġweeks": 2795,
      "Ġdeveloped": 2796,
      "Ġcompon": 2797,
      "met": 2798,
      "bit": 2799,
      "Ġagre": 2800,
      "ĠMin": 2801,
      "Ġlost": 2802,
      "rt": 2803,
      "Ġsoon": 2804,
      "Ġfight": 2805,
      "Ġtarg": 2806,
      "Ġhost": 2807,
      "ĠApril": 2808,
      "Ġslow": 2809,
      "ĠDo": 2810,
      "Ġrisk": 2811,
      "Ġaccept": 2812,
      "Ġtrying": 2813,
      "Ġpositive": 2814,
      "infty": 2815,
      "ĠMed": 2816,
      "Ġdiagn": 2817,
      "hi": 2818,
      "Ġgreater": 2819,
      "Ġpattern": 2820,
      "ensity": 2821,
      "ama": 2822,
      "elling": 2823,
      "33": 2824,
      "ĠSeptember": 2825,
      "with": 2826,
      "Ġrespectively": 2827,
      "Ġanim": 2828,
      "ĠJuly": 2829,
      "Ġpubl": 2830,
      "Ġanti": 2831,
      "off": 2832,
      "time": 2833,
      "isf": 2834,
      "Ġord": 2835,
      "operat": 2836,
      "ients": 2837,
      "IN": 2838,
      "Ġmoved": 2839,
      "Ġbring": 2840,
      "ĠAustral": 2841,
      "ences": 2842,
      "vent": 2843,
      "Ġgetting": 2844,
      "pecially": 2845,
      "ĠIntern": 2846,
      "Ġareas": 2847,
      "Ġdied": 2848,
      "Ġneeded": 2849,
      "Ġnational": 2850,
      "Ġprec": 2851,
      "Ġtiss": 2852,
      "Ġut": 2853,
      "ero": 2854,
      "bor": 2855,
      "Ġsubst": 2856,
      "Ġevents": 2857,
      "apan": 2858,
      "Ġsqu": 2859,
      "When": 2860,
      "Ġinside": 2861,
      "ĠDav": 2862,
      "pper": 2863,
      "Ġcomplete": 2864,
      "lev": 2865,
      "Ġtrue": 2866,
      "Ġstates": 2867,
      "ij": 2868,
      "Ġdoc": 2869,
      "ae": 2870,
      "Ġofficial": 2871,
      "OR": 2872,
      "leg": 2873,
      "olic": 2874,
      "lying": 2875,
      "cdot": 2876,
      "ites": 2877,
      "Ġ195": 2878,
      "ledge": 2879,
      "ned": 2880,
      "resh": 2881,
      "Ġaverage": 2882,
      "Ġsurv": 2883,
      "rightarrow": 2884,
      "iddle": 2885,
      "}+\\": 2886,
      "Ġsomeone": 2887,
      "cher": 2888,
      "ĠJanuary": 2889,
      "Ġcho": 2890,
      "cin": 2891,
      "lin": 2892,
      "ĠWest": 2893,
      "Ġbad": 2894,
      "odes": 2895,
      "ĠHigh": 2896,
      "Ġstandard": 2897,
      "35": 2898,
      "26": 2899,
      "Ġbenef": 2900,
      "Ġvideo": 2901,
      "Ġcareer": 2902,
      "Ġpolice": 2903,
      "ulations": 2904,
      "angle": 2905,
      "cember": 2906,
      "rations": 2907,
      "Ġoutside": 2908,
      "Ġarri": 2909,
      "Ġfactor": 2910,
      "Ġproblems": 2911,
      "Ġbuilt": 2912,
      "ĠSw": 2913,
      "mit": 2914,
      "ovember": 2915,
      "Ġinvolved": 2916,
      "Ġtemper": 2917,
      "Ġcondition": 2918,
      "Ġsle": 2919,
      "Ġsold": 2920,
      "utions": 2921,
      "Ġhor": 2922,
      "Ġheard": 2923,
      "ceed": 2924,
      "omb": 2925,
      "Ġpick": 2926,
      "Ġquite": 2927,
      "Ġredu": 2928,
      "Ġtable": 2929,
      "],": 2930,
      "Ġmut": 2931,
      "Ġpatient": 2932,
      "Ġspect": 2933,
      "Ġcontact": 2934,
      "Ġ_": 2935,
      "Ġlocated": 2936,
      "Ġimprove": 2937,
      "Ġsynt": 2938,
      "Ġroad": 2939,
      "Ġregard": 2940,
      "uth": 2941,
      "Ġmember": 2942,
      "gor": 2943,
      "Ġversion": 2944,
      "ĠOctober": 2945,
      "Ġansw": 2946,
      "Ġdistribution": 2947,
      "Ġperformed": 2948,
      "AC": 2949,
      "gl": 2950,
      "ires": 2951,
      ")=": 2952,
      "Ġlonger": 2953,
      "Ġneeds": 2954,
      "Ġinteg": 2955,
      "anks": 2956,
      "Ġtou": 2957,
      "Ġrats": 2958,
      "ections": 2959,
      "cil": 2960,
      "ĠPart": 2961,
      "Ġpolitical": 2962,
      "Ġdefin": 2963,
      "ĠDep": 2964,
      "light": 2965,
      "ymbol": 2966,
      "Ġsecret": 2967,
      "Ġchall": 2968,
      "Ġlog": 2969,
      "vert": 2970,
      "za": 2971,
      "ham": 2972,
      "omp": 2973,
      "ĠÃ": 2974,
      "Ġwond": 2975,
      "Ġess": 2976,
      "ĠComp": 2977,
      "aving": 2978,
      "Ġprovided": 2979,
      "ymph": 2980,
      "ega": 2981,
      "Ġoffice": 2982,
      "05": 2983,
      "ously": 2984,
      "ĠNot": 2985,
      "Ġstep": 2986,
      "ĠChar": 2987,
      "dom": 2988,
      "rought": 2989,
      "hesis": 2990,
      "Ġpret": 2991,
      "Ġmodels": 2992,
      "Ġespecially": 2993,
      "unch": 2994,
      "order": 2995,
      "bf": 2996,
      "rangle": 2997,
      "Ġcannot": 2998,
      "Ġpie": 2999,
      "Ġten": 3000,
      "Ġapproxim": 3001,
      "ĠDNA": 3002,
      "hbox": 3003,
      "Ġcomes": 3004,
      "ronic": 3005,
      "Ġround": 3006,
      "Ġstation": 3007,
      "ĠBritish": 3008,
      "rick": 3009,
      "Ġviol": 3010,
      "Ġforward": 3011,
      "ĠReg": 3012,
      "odies": 3013,
      "Ġwatch": 3014,
      "rump": 3015,
      "Ġsett": 3016,
      "Ġitself": 3017,
      "Ġcoming": 3018,
      "Ġparent": 3019,
      "Ġbase": 3020,
      "eration": 3021,
      "pite": 3022,
      "Ġvia": 3023,
      "ĠRec": 3024,
      "Ġisol": 3025,
      "29": 3026,
      "Ġce": 3027,
      "igen": 3028,
      "Ġeverything": 3029,
      "xi": 3030,
      "Ġ21": 3031,
      "Ġquality": 3032,
      "Ġhot": 3033,
      "ands": 3034,
      "oud": 3035,
      "Ġmedia": 3036,
      "Ġfriends": 3037,
      "Ġclinical": 3038,
      "ĠAg": 3039,
      "Ġ40": 3040,
      "Ġpack": 3041,
      "ĠSome": 3042,
      "ey": 3043,
      "ĠGeor": 3044,
      "Ġeffic": 3045,
      "AN": 3046,
      "Ġmethods": 3047,
      "Ġprevious": 3048,
      "Ġpersonal": 3049,
      "ani": 3050,
      "ĠEnglish": 3051,
      "orname": 3052,
      "operatorname": 3053,
      "Ġimmedi": 3054,
      "Ġexperiment": 3055,
      "bran": 3056,
      "38": 3057,
      "Ġtoward": 3058,
      "pre": 3059,
      "Ġnews": 3060,
      "ĠJapan": 3061,
      "So": 3062,
      "ille": 3063,
      "Ġdead": 3064,
      "ĠDecember": 3065,
      "ĠNovember": 3066,
      "iled": 3067,
      "tered": 3068,
      "Ġeasy": 3069,
      "ĠHouse": 3070,
      "ĠCounty": 3071,
      "based": 3072,
      "lier": 3073,
      "Ġsolution": 3074,
      "ĠGl": 3075,
      "ĠSm": 3076,
      "Ġleave": 3077,
      "Ġlib": 3078,
      "Ġimage": 3079,
      "Ġspecies": 3080,
      "Ġexact": 3081,
      "ridge": 3082,
      "Ġnatural": 3083,
      "Ġdim": 3084,
      "Ġmagn": 3085,
      "roup": 3086,
      "Ġdig": 3087,
      "}}_{": 3088,
      "Ġsem": 3089,
      "ĠPresident": 3090,
      "199": 3091,
      "Ġclub": 3092,
      "Ġdecl": 3093,
      "gorith": 3094,
      "inated": 3095,
      "sq": 3096,
      "Ġalthough": 3097,
      "||": 3098,
      "Ġfell": 3099,
      "olec": 3100,
      "Ġexcept": 3101,
      "haps": 3102,
      "amic": 3103,
      "Ġcorrel": 3104,
      "Ġproducts": 3105,
      "rench": 3106,
      "Ġenvironment": 3107,
      "Ġparty": 3108,
      "To": 3109,
      "psilon": 3110,
      "joy": 3111,
      "45": 3112,
      "ocr": 3113,
      "Ġexpression": 3114,
      "ett": 3115,
      "Ġcreate": 3116,
      "ĠFeb": 3117,
      "eed": 3118,
      "ental": 3119,
      "aves": 3120,
      "ĠArm": 3121,
      "Ġcause": 3122,
      "itude": 3123,
      "sf": 3124,
      "Ġfocus": 3125,
      "Ġtour": 3126,
      "Ġcourt": 3127,
      "opl": 3128,
      "Ġvict": 3129,
      "ded": 3130,
      "bolds": 3131,
      "ON": 3132,
      "boldsymbol": 3133,
      "ĠLa": 3134,
      "Ġparticip": 3135,
      "Ġbrain": 3136,
      "ĠAng": 3137,
      "Ġnamed": 3138,
      "aign": 3139,
      "orning": 3140,
      "Ġtax": 3141,
      "Ġinstead": 3142,
      "hood": 3143,
      "Ġsal": 3144,
      "Ġliving": 3145,
      "Ġpresident": 3146,
      "Ġdog": 3147,
      "illed": 3148,
      "{(": 3149,
      "Ġplayer": 3150,
      "Ġens": 3151,
      "Ġlength": 3152,
      "arning": 3153,
      "ington": 3154,
      "Ġdifference": 3155,
      "Ġago": 3156,
      "Ġcompar": 3157,
      "AS": 3158,
      "Ġdetermined": 3159,
      "Ġseemed": 3160,
      "80": 3161,
      "Ġpurp": 3162,
      "urg": 3163,
      "ospital": 3164,
      "Ġfram": 3165,
      "ĠDes": 3166,
      "Ġvit": 3167,
      "Ġoffer": 3168,
      "ampions": 3169,
      "more": 3170,
      "Ġtext": 3171,
      "ĠPe": 3172,
      "Ġsense": 3173,
      "born": 3174,
      "Ġmembran": 3175,
      "Ġenzym": 3176,
      "Ġcreated": 3177,
      "Ġengine": 3178,
      "era": 3179,
      "unt": 3180,
      "Ġexpected": 3181,
      "Ġsearch": 3182,
      "Ġproced": 3183,
      "ounced": 3184,
      "ha": 3185,
      "Ġcheck": 3186,
      "Ġund": 3187,
      "Ġhair": 3188,
      "atively": 3189,
      "Ġcontract": 3190,
      "Ġmag": 3191,
      "itation": 3192,
      "ky": 3193,
      "Ġsource": 3194,
      "begin": 3195,
      "onic": 3196,
      "Ġaud": 3197,
      "isc": 3198,
      "Ġrunning": 3199,
      "Ġwritten": 3200,
      "rim": 3201,
      "Ġarch": 3202,
      "ĠSch": 3203,
      "iety": 3204,
      "Ġ*": 3205,
      "iated": 3206,
      "ondon": 3207,
      "geq": 3208,
      "aged": 3209,
      "Ġwalk": 3210,
      "ault": 3211,
      "fact": 3212,
      "75": 3213,
      "istance": 3214,
      "Ġhon": 3215,
      "ĠPark": 3216,
      "Ġprior": 3217,
      "itional": 3218,
      "Ġmatch": 3219,
      "ĠMus": 3220,
      "Ġfast": 3221,
      "pat": 3222,
      "Ġpublished": 3223,
      "Ġrecent": 3224,
      "sec": 3225,
      "Ġbrought": 3226,
      "cript": 3227,
      "Ġinitial": 3228,
      "ĠSim": 3229,
      "Ġlines": 3230,
      "ruary": 3231,
      "Ġforce": 3232,
      "Ġcompan": 3233,
      "oles": 3234,
      "Ġregular": 3235,
      "Ġwhose": 3236,
      "ging": 3237,
      "Ġsimply": 3238,
      "Ġ2007": 3239,
      "Ġusually": 3240,
      "psi": 3241,
      "Ġvill": 3242,
      "Ġprimary": 3243,
      "ĠOur": 3244,
      "Ġcontinued": 3245,
      "arily": 3246,
      "Ġalone": 3247,
      "Ġonline": 3248,
      "They": 3249,
      "och": 3250,
      "Ġox": 3251,
      "Ġfeet": 3252,
      "cont": 3253,
      "Ġcouldn": 3254,
      "ĠMore": 3255,
      "Ġpopular": 3256,
      "ivil": 3257,
      "estern": 3258,
      "36": 3259,
      "Ġfat": 3260,
      "Ġmultiple": 3261,
      "Ġcover": 3262,
      "mega": 3263,
      "Ġeffective": 3264,
      "Ġtried": 3265,
      "Ġbroad": 3266,
      "Ġreach": 3267,
      "ĠSer": 3268,
      "Ġdro": 3269,
      ".)": 3270,
      "Ġadditional": 3271,
      "ĠPat": 3272,
      "Ġreached": 3273,
      "Ġappl": 3274,
      "Ġtypes": 3275,
      "vare": 3276,
      "Ġcaused": 3277,
      "orem": 3278,
      "Ġsam": 3279,
      "wise": 3280,
      "Ġrefer": 3281,
      "vere": 3282,
      "ns": 3283,
      "Ġtarget": 3284,
      "Ġthus": 3285,
      "Ġhope": 3286,
      "sim": 3287,
      "Ġhom": 3288,
      "ĠFl": 3289,
      "Ġappeared": 3290,
      "Ġ22": 3291,
      "ĠBo": 3292,
      "ĠAmerica": 3293,
      "Ġpict": 3294,
      "osing": 3295,
      "Ġcand": 3296,
      "field": 3297,
      "Ġmid": 3298,
      "Ġpan": 3299,
      "pping": 3300,
      "Ġphosph": 3301,
      "Ġir": 3302,
      "Ġworked": 3303,
      "Ġdefined": 3304,
      "Ġmaintain": 3305,
      "ĠMich": 3306,
      "Ġshall": 3307,
      "ĠJust": 3308,
      "rary": 3309,
      "ius": 3310,
      "Ġ2012": 3311,
      "Ġjud": 3312,
      "Ġsi": 3313,
      "Let": 3314,
      "Ġsuff": 3315,
      "ED": 3316,
      "rig": 3317,
      "Ġ23": 3318,
      "Ġmg": 3319,
      "Ġwebs": 3320,
      "Ġreduced": 3321,
      "epsilon": 3322,
      "Ġvent": 3323,
      "Ġenter": 3324,
      "ĊĊĠ": 3325,
      "Ġplasma": 3326,
      "Ġtrack": 3327,
      "Ġpresented": 3328,
      "iot": 3329,
      "Ġ2010": 3330,
      "enty": 3331,
      "Ġstar": 3332,
      "ara": 3333,
      "Ġchem": 3334,
      "see": 3335,
      "iate": 3336,
      "Ġcentury": 3337,
      "Ġmilitary": 3338,
      "Ġ28": 3339,
      "key": 3340,
      "Ġconstant": 3341,
      "verse": 3342,
      "Ġability": 3343,
      "Ġassess": 3344,
      "zz": 3345,
      "obal": 3346,
      "ĠBro": 3347,
      "Ġconduct": 3348,
      "Ġlanguage": 3349,
      "Ġsatisf": 3350,
      "mail": 3351,
      "ES": 3352,
      "Ġhit": 3353,
      "Ġskin": 3354,
      "Ġeight": 3355,
      "osa": 3356,
      "omas": 3357,
      "ĠInt": 3358,
      "itis": 3359,
      "Ġ2011": 3360,
      "uration": 3361,
      "Ġball": 3362,
      "uel": 3363,
      "Ġ2006": 3364,
      "IS": 3365,
      "sqrt": 3366,
      "ĠÂ": 3367,
      "Ġstrateg": 3368,
      "ociety": 3369,
      "que": 3370,
      "Gamma": 3371,
      "Ġtravel": 3372,
      "ulf": 3373,
      "Ġlymph": 3374,
      "Ġspeak": 3375,
      "Ġbinding": 3376,
      "34": 3377,
      "Ġcontinu": 3378,
      "Ġthemselves": 3379,
      "imate": 3380,
      "Ġmur": 3381,
      "Ġcentral": 3382,
      "Ġphase": 3383,
      "Ġactive": 3384,
      "ĠGo": 3385,
      "Ġlink": 3386,
      "Ġseems": 3387,
      "Ġstage": 3388,
      "Ġmach": 3389,
      "âĢ¦": 3390,
      "cast": 3391,
      "ael": 3392,
      "come": 3393,
      "Ġrev": 3394,
      "urb": 3395,
      "Ġemb": 3396,
      "ste": 3397,
      "ĠAct": 3398,
      "Ġexec": 3399,
      "ought": 3400,
      "Ġmechanism": 3401,
      "Ġ2008": 3402,
      "ĠFrom": 3403,
      "ming": 3404,
      "Ġopportun": 3405,
      "Ġextra": 3406,
      "Ġquestions": 3407,
      "ford": 3408,
      "script": 3409,
      "pid": 3410,
      "Ġbeaut": 3411,
      "reng": 3412,
      "rec": 3413,
      "ura": 3414,
      "ĠAfric": 3415,
      "room": 3416,
      "Ġgun": 3417,
      "atives": 3418,
      "orks": 3419,
      "ĠLondon": 3420,
      "ĠLet": 3421,
      "Ġ#": 3422,
      "ĠFebruary": 3423,
      ",'": 3424,
      "ects": 3425,
      "BC": 3426,
      "Ġ$(": 3427,
      "abor": 3428,
      "irth": 3429,
      "Ġenjoy": 3430,
      "Ġtool": 3431,
      "icles": 3432,
      "fficient": 3433,
      "Ġimag": 3434,
      "Ġconcentration": 3435,
      "Ġissue": 3436,
      "Ġcampaign": 3437,
      "Ġborn": 3438,
      "ender": 3439,
      "Ġdecision": 3440,
      "70": 3441,
      "Ġ26": 3442,
      "Ġcommand": 3443,
      "Ġopened": 3444,
      "gment": 3445,
      "racy": 3446,
      "ĠWilliam": 3447,
      "Ġperfect": 3448,
      "ĠNow": 3449,
      "Ġcred": 3450,
      "iven": 3451,
      "Ġquickly": 3452,
      "Ġfactors": 3453,
      "ĠCont": 3454,
      "Ġbrother": 3455,
      "~{": 3456,
      "Ġproperty": 3457,
      "Ġevalu": 3458,
      "Ġadj": 3459,
      "}}(": 3460,
      "Omega": 3461,
      "rin": 3462,
      "Ġcry": 3463,
      "Ġattention": 3464,
      "ancy": 3465,
      "Ġqual": 3466,
      "Ġlearning": 3467,
      "ĠWhile": 3468,
      "ises": 3469,
      "Ġtransfer": 3470,
      "Ġprovides": 3471,
      "Ġadm": 3472,
      "Ġanimals": 3473,
      "term": 3474,
      "Ġran": 3475,
      "ico": 3476,
      "39": 3477,
      "Ġgraph": 3478,
      "Ġnorth": 3479,
      "Ġbur": 3480,
      "Ġvisit": 3481,
      "Ġestablished": 3482,
      "erous": 3483,
      "varepsilon": 3484,
      "uge": 3485,
      "gn": 3486,
      "Ġnecessary": 3487,
      "ĠDem": 3488,
      "istics": 3489,
      "ĠMon": 3490,
      "Ġult": 3491,
      "body": 3492,
      "adem": 3493,
      "oring": 3494,
      "Ġshare": 3495,
      "load": 3496,
      "ĠEar": 3497,
      ")^{": 3498,
      "Ġsecurity": 3499,
      "ecause": 3500,
      "Ġmorning": 3501,
      "Ġclosed": 3502,
      "Ġplayers": 3503,
      "rial": 3504,
      "Ġsurpr": 3505,
      "Ġdirectly": 3506,
      "Ġreturned": 3507,
      "that": 3508,
      "Ġtreated": 3509,
      "Ġknowledge": 3510,
      "Ġwife": 3511,
      "actions": 3512,
      "erson": 3513,
      "Ġresid": 3514,
      "ication": 3515,
      "Ġpoly": 3516,
      "Ġprevent": 3517,
      "ccording": 3518,
      "Ġchann": 3519,
      "aught": 3520,
      "Ġassum": 3521,
      "Ġ2013": 3522,
      "Ġemer": 3523,
      "Ġswe": 3524,
      "oman": 3525,
      "ĠTrump": 3526,
      "oul": 3527,
      "ĠVal": 3528,
      "Ġwrote": 3529,
      "undred": 3530,
      "ĠTra": 3531,
      "IC": 3532,
      "unction": 3533,
      "Ġ2018": 3534,
      "rant": 3535,
      "ulin": 3536,
      "Ġissues": 3537,
      "Ġdegree": 3538,
      "aches": 3539,
      "Ġthroughout": 3540,
      "Ġslight": 3541,
      "wide": 3542,
      "ĠFrench": 3543,
      "Ġsaying": 3544,
      "cope": 3545,
      "Ġ2016": 3546,
      "Ġadministration": 3547,
      "Ġserved": 3548,
      "Ġdraw": 3549,
      "Ġprep": 3550,
      "AM": 3551,
      "ishing": 3552,
      ")-": 3553,
      "):": 3554,
      "Ġarter": 3555,
      "gram": 3556,
      "asons": 3557,
      "overline": 3558,
      "Ġ:": 3559,
      "37": 3560,
      "Ġdecided": 3561,
      "aint": 3562,
      "Ġkilled": 3563,
      "Ġfollows": 3564,
      "ees": 3565,
      "Ġ2009": 3566,
      "ulate": 3567,
      "oted": 3568,
      "Ġmeasured": 3569,
      "After": 3570,
      "Ġincreasing": 3571,
      "ully": 3572,
      "Ġwid": 3573,
      "Ġserum": 3574,
      "ership": 3575,
      "32": 3576,
      "Ġalpha": 3577,
      "urt": 3578,
      "Ġpen": 3579,
      "ĠRed": 3580,
      "Ġlack": 3581,
      "aly": 3582,
      "amine": 3583,
      "Ġliter": 3584,
      "Ġdesigned": 3585,
      "Ġaddress": 3586,
      "Ġmention": 3587,
      "ula": 3588,
      "%)": 3589,
      "Cl": 3590,
      "aries": 3591,
      "raz": 3592,
      "Ġjour": 3593,
      "iction": 3594,
      "Ġproperties": 3595,
      "Ġbott": 3596,
      "Ġbox": 3597,
      "ĠAir": 3598,
      "ĠSan": 3599,
      "iance": 3600,
      "Ġapplication": 3601,
      "ĠRepublic": 3602,
      "ek": 3603,
      "Ġadult": 3604,
      "iles": 3605,
      "ĠCour": 3606,
      "inct": 3607,
      "Ġsequence": 3608,
      "Ġmolec": 3609,
      "band": 3610,
      "ĠSince": 3611,
      "Ġleading": 3612,
      "Ġtakes": 3613,
      "At": 3614,
      "Ġactivities": 3615,
      "acc": 3616,
      "Ġmedical": 3617,
      "Ġfed": 3618,
      "Ġscreen": 3619,
      "Ġisn": 3620,
      "Ġcharg": 3621,
      "fort": 3622,
      "Ġincludes": 3623,
      "Ġcode": 3624,
      "Ġship": 3625,
      "}}^{": 3626,
      "aily": 3627,
      "Ġgene": 3628,
      "Ġgas": 3629,
      "amin": 3630,
      "Ġcancer": 3631,
      "Ġprinc": 3632,
      "Wh": 3633,
      "ii": 3634,
      "Ġstreng": 3635,
      "Ġstru": 3636,
      "Ġproposed": 3637,
      "Ġhear": 3638,
      "Ġbasis": 3639,
      "Ġpreviously": 3640,
      "Ġbeta": 3641,
      "aughter": 3642,
      "ĠJack": 3643,
      "Ġ27": 3644,
      "Ġrecomm": 3645,
      "Ġhem": 3646,
      "Ġtal": 3647,
      "Ġanyone": 3648,
      "}-\\": 3649,
      "Ġepis": 3650,
      "ords": 3651,
      "Ġplaying": 3652,
      "Ġpage": 3653,
      "Ġseven": 3654,
      "iments": 3655,
      "Ġlif": 3656,
      "ken": 3657,
      "Ġthreat": 3658,
      "add": 3659,
      "Ġearlier": 3660,
      "Ġtransport": 3661,
      "}[": 3662,
      "Ġimpact": 3663,
      "ests": 3664,
      "Ġphysical": 3665,
      "Ġgoal": 3666,
      "Ġwide": 3667,
      "Ġtransl": 3668,
      "Ġpsy": 3669,
      "Ġdat": 3670,
      "cial": 3671,
      "Ġtowards": 3672,
      "Ġtissue": 3673,
      "Ġclean": 3674,
      "icip": 3675,
      "ava": 3676,
      "ĠTw": 3677,
      "ĠLeague": 3678,
      "ww": 3679,
      "Ġrepe": 3680,
      "Ġcenter": 3681,
      "book": 3682,
      "enc": 3683,
      "Ġ...": 3684,
      "raw": 3685,
      "Ġculture": 3686,
      "ights": 3687,
      "Ġparameters": 3688,
      "Ġvirus": 3689,
      "Ġ2017": 3690,
      "ĠChina": 3691,
      "ica": 3692,
      "Ġconsum": 3693,
      "frak": 3694,
      "Ġera": 3695,
      "ugh": 3696,
      "Ġprivate": 3697,
      "Ġcomputer": 3698,
      "ades": 3699,
      "Ġcompletely": 3700,
      "omen": 3701,
      "Ġspeed": 3702,
      "igned": 3703,
      "Ġhydro": 3704,
      "Ġmount": 3705,
      "mathfrak": 3706,
      "Ġsouth": 3707,
      "}\\\\": 3708,
      "Ġfunctions": 3709,
      "44": 3710,
      "____": 3711,
      "mar": 3712,
      "Ġarticle": 3713,
      "Ġ${\\": 3714,
      "Ġstyle": 3715,
      "Ġmanagement": 3716,
      "}|": 3717,
      "EN": 3718,
      "inter": 3719,
      "Ġlarger": 3720,
      "Ġ60": 3721,
      "Ġnature": 3722,
      "rief": 3723,
      "Ġcorrect": 3724,
      "Ġsun": 3725,
      "Ġcyt": 3726,
      "Ġrand": 3727,
      "Ġpractice": 3728,
      "Ġsites": 3729,
      "hest": 3730,
      "ID": 3731,
      "Ġwrong": 3732,
      "rael": 3733,
      "acher": 3734,
      "Ġfloor": 3735,
      "ĠAc": 3736,
      "Ġfing": 3737,
      "Ġneigh": 3738,
      "sing": 3739,
      "ĠFirst": 3740,
      "Ġparts": 3741,
      "Ġstaff": 3742,
      "rees": 3743,
      "Ġ2014": 3744,
      "Ġindustry": 3745,
      "ector": 3746,
      "Ġhundred": 3747,
      "Ġcast": 3748,
      "ressive": 3749,
      "ĠSen": 3750,
      "Ġchrom": 3751,
      "Ġlip": 3752,
      "ione": 3753,
      "king": 3754,
      "Ġconclud": 3755,
      "ĠAnt": 3756,
      "Ġtheory": 3757,
      "Ġrandom": 3758,
      "def": 3759,
      "Ġallowed": 3760,
      "Ġconcept": 3761,
      "Ġfeed": 3762,
      "ils": 3763,
      "Ġchoice": 3764,
      "Ġspl": 3765,
      "Ġeveryone": 3766,
      "Ġalgorith": 3767,
      "vey": 3768,
      "Ġacqu": 3769,
      "Ġrevealed": 3770,
      "Ġnearly": 3771,
      "Ġsignal": 3772,
      "ends": 3773,
      "Ġlat": 3774,
      "Ġfavor": 3775,
      "ems": 3776,
      "Ġhighly": 3777,
      "Ġautom": 3778,
      "iency": 3779,
      "Ġnumbers": 3780,
      "Ġways": 3781,
      "Ġcountries": 3782,
      "Ġtherapy": 3783,
      "yond": 3784,
      "Ġradio": 3785,
      "Ġ2015": 3786,
      "rg": 3787,
      "sk": 3788,
      "ĠDepartment": 3789,
      "Ġtherefore": 3790,
      "Ġrespond": 3791,
      "ibly": 3792,
      "ĠDavid": 3793,
      "Ġfinanc": 3794,
      "Ġrapid": 3795,
      "ĠHol": 3796,
      "Ġren": 3797,
      "Ġcontinue": 3798,
      "Ġanswer": 3799,
      "langle": 3800,
      "Ġenh": 3801,
      "Ġinn": 3802,
      "wid": 3803,
      "ĠAlthough": 3804,
      "AL": 3805,
      "ĠTwo": 3806,
      "ĠStud": 3807,
      "roke": 3808,
      "Ġinternational": 3809,
      "Ġrights": 3810,
      "Ġwal": 3811,
      "ĠPaul": 3812,
      "ropri": 3813,
      "ampionship": 3814,
      "Ġbal": 3815,
      "Ġsomet": 3816,
      "Ġgone": 3817,
      "&\\": 3818,
      "All": 3819,
      "ĠMor": 3820,
      "lands": 3821,
      "Ġimplement": 3822,
      "Ġcycl": 3823,
      "iforn": 3824,
      "Ġhistor": 3825,
      "Ġeducation": 3826,
      "Ġdifferences": 3827,
      "ĠDr": 3828,
      "Ġdose": 3829,
      "utive": 3830,
      "Ġtemperature": 3831,
      "Ġgold": 3832,
      "range": 3833,
      "Ġprofessional": 3834,
      "ocytes": 3835,
      "Ġcompanies": 3836,
      "{{\\": 3837,
      "ĠOf": 3838,
      "Ġfinally": 3839,
      "my": 3840,
      "Big": 3841,
      "itte": 3842,
      "under": 3843,
      "Ġwebsite": 3844,
      "AP": 3845,
      "Ġmi": 3846,
      "change": 3847,
      "Ġaltern": 3848,
      "Ġconcentrations": 3849,
      "overn": 3850,
      "Ġshot": 3851,
      "oura": 3852,
      "Ġcolor": 3853,
      "Ġfootball": 3854,
      "Ġge": 3855,
      "Ġfit": 3856,
      ")}\\": 3857,
      "Sh": 3858,
      "^{*": 3859,
      "198": 3860,
      "Ġrecently": 3861,
      "iers": 3862,
      "Ġtechnology": 3863,
      "ears": 3864,
      "Ġsleep": 3865,
      "Ġcontrast": 3866,
      "Ġdyn": 3867,
      "alled": 3868,
      "eff": 3869,
      "mod": 3870,
      "Ġdiscussed": 3871,
      "ounds": 3872,
      "90": 3873,
      "Ġcarry": 3874,
      "cell": 3875,
      "ĠMark": 3876,
      "Ġhop": 3877,
      "rome": 3878,
      "isions": 3879,
      "AD": 3880,
      "ĠPal": 3881,
      "Ġexperien": 3882,
      "mathsf": 3883,
      "ĠThus": 3884,
      "Ġdoub": 3885,
      "Ġpurch": 3886,
      "Ġchanged": 3887,
      "which": 3888,
      "aker": 3889,
      "Ġpolicy": 3890,
      "Ã¡": 3891,
      "varphi": 3892,
      "Ġherself": 3893,
      "Ġappears": 3894,
      "Ġprotect": 3895,
      "trans": 3896,
      "ĠServ": 3897,
      "ding": 3898,
      "Ġcandid": 3899,
      "Ġcompl": 3900,
      "Ġresour": 3901,
      "Figure": 3902,
      "Ġmodern": 3903,
      "Ġrelig": 3904,
      "Ġrates": 3905,
      "Ġinject": 3906,
      "Ġquar": 3907,
      "roy": 3908,
      "55": 3909,
      ")=\\": 3910,
      "Ġmetab": 3911,
      "31": 3912,
      "iring": 3913,
      "ĠGerman": 3914,
      "olar": 3915,
      "ĠDuring": 3916,
      "With": 3917,
      "ras": 3918,
      "Ġprice": 3919,
      "ria": 3920,
      "ĠWash": 3921,
      "Ġkept": 3922,
      "Ġwood": 3923,
      "bra": 3924,
      "wood": 3925,
      "Ġveh": 3926,
      "Ġbehavior": 3927,
      "Ġsituation": 3928,
      "Ġboard": 3929,
      "Pro": 3930,
      "Ġhappened": 3931,
      "Ġtitle": 3932,
      "Ġsubjects": 3933,
      "ifornia": 3934,
      "Ġlimited": 3935,
      "ĠSam": 3936,
      "Ġdetermine": 3937,
      "ĠEast": 3938,
      "leb": 3939,
      "ios": 3940,
      ",$": 3941,
      "Ġuseful": 3942,
      "Ġparticularly": 3943,
      "ĠCa": 3944,
      "Ġpoor": 3945,
      "48": 3946,
      "ref": 3947,
      "Ġunit": 3948,
      "Ġuser": 3949,
      "Ġmal": 3950,
      "Ġdistance": 3951,
      "}}{\\": 3952,
      "ĠBlack": 3953,
      "ĠStreet": 3954,
      "iful": 3955,
      "Ġcere": 3956,
      "Ġrac": 3957,
      "//": 3958,
      "Ġready": 3959,
      "rab": 3960,
      "Ġstood": 3961,
      "Ġindependent": 3962,
      "rust": 3963,
      "\\\\{": 3964,
      "Ġdirection": 3965,
      "Ġfeature": 3966,
      "ny": 3967,
      "Ġblue": 3968,
      "Ġda": 3969,
      "Ġgradu": 3970,
      "Ġunique": 3971,
      "ĠDon": 3972,
      "Ġrock": 3973,
      "Ġboy": 3974,
      "ĠChe": 3975,
      "Ġoil": 3976,
      "Ġeasily": 3977,
      "Ġwriting": 3978,
      "Ġcurrently": 3979,
      "Ã¼": 3980,
      "Ġchance": 3981,
      "---|": 3982,
      "aur": 3983,
      "Ġnovel": 3984,
      "Ġmouth": 3985,
      "ĠAT": 3986,
      "Ġannounced": 3987,
      "aling": 3988,
      "Ġdocument": 3989,
      "rian": 3990,
      "Ġpretty": 3991,
      "Ġ29": 3992,
      "Ġwat": 3993,
      "maz": 3994,
      "Ġbreath": 3995,
      "Ġphone": 3996,
      "Ġgives": 3997,
      "ida": 3998,
      "ĠEngland": 3999,
      ")$.": 4000,
      "Ġdisplay": 4001,
      "Ġupd": 4002,
      "Ġ2019": 4003,
      "ĠCoun": 4004,
      "itter": 4005,
      "Ġtrac": 4006,
      "Ġelements": 4007,
      "]{": 4008,
      "Ġcontribut": 4009,
      "ĠRich": 4010,
      "Ġnod": 4011,
      "Ġcouple": 4012,
      "###": 4013,
      "Ġphen": 4014,
      "Ġones": 4015,
      "ĠArt": 4016,
      "Ġbeginning": 4017,
      "Ġliver": 4018,
      "den": 4019,
      "Ġselect": 4020,
      "Ġdouble": 4021,
      "ux": 4022,
      "Ġbuy": 4023,
      "100": 4024,
      "ĠJames": 4025,
      "atin": 4026,
      "ooth": 4027,
      "Ġwouldn": 4028,
      "imens": 4029,
      "mp": 4030,
      "Ġheavy": 4031,
      "ĠInternational": 4032,
      "ĠGeneral": 4033,
      "Ġsen": 4034,
      "Ġmale": 4035,
      "Ġ2005": 4036,
      "Ġcarried": 4037,
      "osure": 4038,
      "ares": 4039,
      "Ġinduced": 4040,
      "Ġimmediately": 4041,
      "ĠIsrael": 4042,
      "ĠIndian": 4043,
      "ĠCalifornia": 4044,
      "Ġarms": 4045,
      "Ġuna": 4046,
      "ĠCourt": 4047,
      "Ġfine": 4048,
      "Ġremained": 4049,
      "irt": 4050,
      "Ġeye": 4051,
      "Ġcorn": 4052,
      "izes": 4053,
      "rey": 4054,
      "Ġinfluence": 4055,
      "Ġsometimes": 4056,
      "clus": 4057,
      "IT": 4058,
      "men": 4059,
      "Ġrace": 4060,
      "igno": 4061,
      "alle": 4062,
      "Ġavoid": 4063,
      "Ġremember": 4064,
      "Ġpassed": 4065,
      "Ġpair": 4066,
      "My": 4067,
      "Ġallows": 4068,
      "Ġforces": 4069,
      "Ġmembrane": 4070,
      "Ġidentified": 4071,
      "Ġtouch": 4072,
      "Ġgreen": 4073,
      "ĠWashington": 4074,
      "yself": 4075,
      "Ġcontroll": 4076,
      "iques": 4077,
      "ĠEuropean": 4078,
      "Ġimages": 4079,
      "down": 4080,
      "AB": 4081,
      "Ġmiddle": 4082,
      "Ġbirth": 4083,
      "Ġdisapp": 4084,
      "lease": 4085,
      "Ġapparent": 4086,
      "EC": 4087,
      "65": 4088,
      "ĠIndia": 4089,
      "Ġformed": 4090,
      "Ġremain": 4091,
      "bon": 4092,
      "Ġlimit": 4093,
      "Ġroll": 4094,
      "Ġmovement": 4095,
      "inate": 4096,
      "oo": 4097,
      "ushed": 4098,
      "rupt": 4099,
      "Ġmeeting": 4100,
      "Re": 4101,
      "Ġmap": 4102,
      "Ġlocation": 4103,
      "cos": 4104,
      "respaces": 4105,
      "ignorespaces": 4106,
      "cap": 4107,
      "iling": 4108,
      "Ġparents": 4109,
      "Ġdamage": 4110,
      "Ġmis": 4111,
      "Ġusers": 4112,
      "\\\\\\": 4113,
      "Ġsyn": 4114,
      "Ġhospital": 4115,
      "Ġworth": 4116,
      "ĠAssoci": 4117,
      "Ġdate": 4118,
      "array": 4119,
      "Ġanaly": 4120,
      "Ġcateg": 4121,
      "ĠLib": 4122,
      "Ġfair": 4123,
      "Ġconvers": 4124,
      "Ġfindings": 4125,
      "Ġâ": 4126,
      "Ġdetails": 4127,
      "Ġstraight": 4128,
      "agon": 4129,
      "Ġdu": 4130,
      "Ġdisp": 4131,
      "Ġmuscle": 4132,
      "Yes": 4133,
      "but": 4134,
      "unk": 4135,
      "stitute": 4136,
      "spec": 4137,
      "Ġ{": 4138,
      "ĠRober": 4139,
      "Ġisolated": 4140,
      "?'": 4141,
      "Ġgi": 4142,
      "Ġtro": 4143,
      "Ġbeyond": 4144,
      "Ġeth": 4145,
      "ocal": 4146,
      "Ġheat": 4147,
      "Ġsuit": 4148,
      "ville": 4149,
      "Ġpark": 4150,
      "Ġmoving": 4151,
      "Ġmulti": 4152,
      "ping": 4153,
      "Ġcop": 4154,
      "inks": 4155,
      "ĠDist": 4156,
      "ocks": 4157,
      "ĠHere": 4158,
      "Ġspir": 4159,
      "Ġprepar": 4160,
      "ĠCenter": 4161,
      "Ġgrand": 4162,
      "Ġspent": 4163,
      "Ġapplied": 4164,
      "Ġsort": 4165,
      "Ġthous": 4166,
      "ements": 4167,
      "Un": 4168,
      "itz": 4169,
      "Ġcold": 4170,
      "ĠMal": 4171,
      "Ġmyself": 4172,
      "known": 4173,
      "Ġles": 4174,
      "levision": 4175,
      "\\,": 4176,
      "ĠOb": 4177,
      "log": 4178,
      "bb": 4179,
      "ĠCollege": 4180,
      "rie": 4181,
      "dden": 4182,
      "Ġlives": 4183,
      "Ġsuggested": 4184,
      "Ġdensity": 4185,
      "Ġgiving": 4186,
      "Ġoccurred": 4187,
      "mission": 4188,
      "Ġforms": 4189,
      "Ġcontains": 4190,
      "elled": 4191,
      "atform": 4192,
      "Ġanc": 4193,
      "Ġrecorded": 4194,
      "ady": 4195,
      "earch": 4196,
      "certain": 4197,
      "Ġhous": 4198,
      "ĠFig": 4199,
      "otes": 4200,
      "orthern": 4201,
      "Ġmob": 4202,
      "66": 4203,
      "Ġmice": 4204,
      "Ġcorresponding": 4205,
      "active": 4206,
      "otic": 4207,
      "Ġexactly": 4208,
      "ander": 4209,
      "ession": 4210,
      "rs": 4211,
      "ĠTV": 4212,
      "ean": 4213,
      "}.$": 4214,
      "://": 4215,
      "Ġweap": 4216,
      "isted": 4217,
      "\\\\!": 4218,
      "ĠRiver": 4219,
      "Ġap": 4220,
      "Ġnor": 4221,
      "istory": 4222,
      "Ġcam": 4223,
      "Ġdang": 4224,
      "Ġfigure": 4225,
      "Ġthinking": 4226,
      "Ġonto": 4227,
      "Ġinterview": 4228,
      "Ġapproximately": 4229,
      "Ġconstruction": 4230,
      "Ġtumor": 4231,
      "Ġconstruct": 4232,
      "Ġsudden": 4233,
      "itar": 4234,
      "Ġinput": 4235,
      "Ġoperation": 4236,
      "Ġoverall": 4237,
      "Ġcivil": 4238,
      "Ġtrust": 4239,
      "Ġintra": 4240,
      "Ġwrite": 4241,
      "Ġraised": 4242,
      "Ġfemale": 4243,
      "47": 4244,
      "acity": 4245,
      "Ġremains": 4246,
      "Ġweak": 4247,
      "Ġfrequency": 4248,
      "Ġbackground": 4249,
      "outhern": 4250,
      "Ġimpl": 4251,
      "Ġsche": 4252,
      "ĠTrans": 4253,
      "Ġexhib": 4254,
      "Ġaw": 4255,
      "ĠWhite": 4256,
      "roid": 4257,
      "ittee": 4258,
      "Ġdegrees": 4259,
      "Ġplaced": 4260,
      "Ġ;": 4261,
      "aching": 4262,
      "oyal": 4263,
      "Ġgenerally": 4264,
      "ufact": 4265,
      "Ġproduce": 4266,
      "Ġsuccessful": 4267,
      "Ġedge": 4268,
      "Ġcontain": 4269,
      "Ġvariety": 4270,
      "Ġaim": 4271,
      "Ġ2000": 4272,
      "Ġsubsequ": 4273,
      "iny": 4274,
      "}{{": 4275,
      "Ġexerc": 4276,
      "Ġequal": 4277,
      "Ġnegative": 4278,
      "Ġlegal": 4279,
      "Ġformation": 4280,
      ")$,": 4281,
      "oute": 4282,
      "Ġvolume": 4283,
      "One": 4284,
      "comp": 4285,
      "Ġuses": 4286,
      "Ġwhom": 4287,
      "ĠCong": 4288,
      "Ġenzyme": 4289,
      "Ġglobal": 4290,
      "umn": 4291,
      "ĠGeorge": 4292,
      "Ġpeak": 4293,
      "ĠJew": 4294,
      "Ġdiss": 4295,
      "Ġscient": 4296,
      "Ġplant": 4297,
      "Ġbab": 4298,
      "Ġdaughter": 4299,
      "Ġtechnique": 4300,
      "ĠMart": 4301,
      "Ġmemory": 4302,
      "Ġfully": 4303,
      "appa": 4304,
      "Ġprol": 4305,
      "Ġmeaning": 4306,
      "Ġreaction": 4307,
      "lo": 4308,
      "Ġlabel": 4309,
      "Ġdemand": 4310,
      "Is": 4311,
      "Ġstrength": 4312,
      "Ġadvant": 4313,
      "ĠDef": 4314,
      "Ġindicate": 4315,
      "Ġconstit": 4316,
      "Ġrob": 4317,
      "Ġbooks": 4318,
      "95": 4319,
      "Ġbank": 4320,
      "[\\": 4321,
      "Ġnoted": 4322,
      "Ġtrou": 4323,
      "Ġhour": 4324,
      "atur": 4325,
      "eto": 4326,
      "Ġkid": 4327,
      "ora": 4328,
      "Ġsympt": 4329,
      "Ġagg": 4330,
      "Ġfinancial": 4331,
      "Ġdie": 4332,
      "pir": 4333,
      "inant": 4334,
      "anned": 4335,
      "enge": 4336,
      "Ġ2004": 4337,
      "ston": 4338,
      "Now": 4339,
      "gar": 4340,
      "Ġsurround": 4341,
      "ĠCanada": 4342,
      "ĠBel": 4343,
      "ĠNet": 4344,
      "ĠCons": 4345,
      "Ġnote": 4346,
      "itect": 4347,
      "Ġbrief": 4348,
      "HE": 4349,
      "erent": 4350,
      "Ġtas": 4351,
      "Ġyourself": 4352,
      "Ġmatrix": 4353,
      "iform": 4354,
      "ĠMost": 4355,
      "Ġlinear": 4356,
      "can": 4357,
      "Ġpurpose": 4358,
      "Ġapart": 4359,
      "ĠYour": 4360,
      "inese": 4361,
      "PS": 4362,
      "Ġcomment": 4363,
      "reak": 4364,
      "Ġspread": 4365,
      "Ġwarm": 4366,
      "Ġcharge": 4367,
      "ĠUK": 4368,
      "ĠEven": 4369,
      "now": 4370,
      "oming": 4371,
      "Ġlung": 4372,
      "uted": 4373,
      "gery": 4374,
      "Ġstatement": 4375,
      "entially": 4376,
      "Ġsevere": 4377,
      "Ġsoftware": 4378,
      "chen": 4379,
      "Ġdecreased": 4380,
      "istant": 4381,
      "Ġperhaps": 4382,
      "Ġsmaller": 4383,
      "ago": 4384,
      "aneous": 4385,
      "Ġchurch": 4386,
      "istry": 4387,
      "ÃŃ": 4388,
      "ias": 4389,
      ".Â»": 4390,
      "ĠAustralia": 4391,
      "ĠMac": 4392,
      "point": 4393,
      "lig": 4394,
      "Ġcomplic": 4395,
      "78": 4396,
      "ĠÂ«": 4397,
      "berg": 4398,
      "Ġglass": 4399,
      "board": 4400,
      "Ġsamples": 4401,
      "ĠMod": 4402,
      "Ġstarting": 4403,
      "Ġreports": 4404,
      "Ġdrive": 4405,
      "Ġhighest": 4406,
      "Ġreceptor": 4407,
      "ifying": 4408,
      "Ġplate": 4409,
      "Ġcool": 4410,
      "Ġneut": 4411,
      "kg": 4412,
      "Ġexamined": 4413,
      "ĠLord": 4414,
      "ranch": 4415,
      "Ġgoes": 4416,
      "Ãł": 4417,
      "rgb": 4418,
      "ĠMichael": 4419,
      "induced": 4420,
      "ellig": 4421,
      "olf": 4422,
      "Ġload": 4423,
      "ĠGreat": 4424,
      "!!": 4425,
      "vant": 4426,
      "46": 4427,
      "Ġindividuals": 4428,
      "Ġbattle": 4429,
      "ĠGra": 4430,
      "ĠChurch": 4431,
      "vis": 4432,
      "Ġmaximum": 4433,
      "Ġfile": 4434,
      "ĠCD": 4435,
      "Ġsummer": 4436,
      "Ġdemonstrated": 4437,
      "well": 4438,
      "Ġstatus": 4439,
      "ographic": 4440,
      "ĠPort": 4441,
      "Ġmedium": 4442,
      "aper": 4443,
      "Ġoutput": 4444,
      "49": 4445,
      "ethyl": 4446,
      "ocked": 4447,
      "Ġproteins": 4448,
      "hetic": 4449,
      "ĠCup": 4450,
      "Ġfinished": 4451,
      "Ġcomponents": 4452,
      "Ġneur": 4453,
      "iac": 4454,
      "ĠGovern": 4455,
      "Ġgluc": 4456,
      "Do": 4457,
      "Ġcommer": 4458,
      "Ġetc": 4459,
      "Ġchoose": 4460,
      "arp": 4461,
      "ĠOther": 4462,
      "Ġrequest": 4463,
      "ĠAlex": 4464,
      "asion": 4465,
      "Ġrelative": 4466,
      "Ġratio": 4467,
      "Ġdirector": 4468,
      "Ġinfection": 4469,
      "Ġmeant": 4470,
      "Ġlargest": 4471,
      "Ġselected": 4472,
      "ini": 4473,
      "formed": 4474,
      "Ġincor": 4475,
      "Ġsch": 4476,
      "Ġresponsible": 4477,
      "Ġdevice": 4478,
      "Ġburn": 4479,
      "oral": 4480,
      "ĠTheorem": 4481,
      "Ġdaily": 4482,
      "ingu": 4483,
      "ĠCouncil": 4484,
      "Ġcapital": 4485,
      "Ġappoint": 4486,
      "Ġeconomic": 4487,
      "Ġ31": 4488,
      "ĠLem": 4489,
      "cur": 4490,
      "ference": 4491,
      "clusion": 4492,
      "Ġoccup": 4493,
      "Ġsafe": 4494,
      "Ps": 4495,
      "ĠGroup": 4496,
      "Ġappropri": 4497,
      "icity": 4498,
      "Ġmarked": 4499,
      "Ġupper": 4500,
      "Ġcontaining": 4501,
      "aging": 4502,
      "erate": 4503,
      "Not": 4504,
      "Ġmarried": 4505,
      "Then": 4506,
      "Ġobv": 4507,
      "Ġchair": 4508,
      "erry": 4509,
      "Ġfig": 4510,
      "Ġelement": 4511,
      "Ġstudent": 4512,
      "ĠDay": 4513,
      "By": 4514,
      "Ġmit": 4515,
      "Ġwild": 4516,
      "Ġbone": 4517,
      "kin": 4518,
      "Ġvitro": 4519,
      "Ġwonder": 4520,
      "Ġpsych": 4521,
      "gu": 4522,
      "Ġtrade": 4523,
      "Ġelection": 4524,
      "ĠHall": 4525,
      "ĠDemocr": 4526,
      "Ġfa": 4527,
      "lant": 4528,
      "Ġslightly": 4529,
      "Ġplatform": 4530,
      "ĠPhil": 4531,
      "Ġvillage": 4532,
      "rier": 4533,
      "mic": 4534,
      "irect": 4535,
      "ando": 4536,
      "ipp": 4537,
      "normal": 4538,
      "Ġconver": 4539,
      "Ġaward": 4540,
      "Ġcit": 4541,
      "overy": 4542,
      "Ġplans": 4543,
      "88": 4544,
      "rence": 4545,
      "Ġwhereas": 4546,
      "Ġcombination": 4547,
      "Ġfif": 4548,
      "OS": 4549,
      "Ġfixed": 4550,
      "Ġcounter": 4551,
      "Ġwindow": 4552,
      "Ġsample": 4553,
      "ĠLou": 4554,
      "hydro": 4555,
      "Ġdiagnosis": 4556,
      "Ġreb": 4557,
      "Ġoperations": 4558,
      "ĠBen": 4559,
      "CC": 4560,
      "Ġkin": 4561,
      "ĠFrance": 4562,
      "Ġbrand": 4563,
      "Ã¶": 4564,
      "Ġscen": 4565,
      "isl": 4566,
      "Ġoffers": 4567,
      "Ġstopped": 4568,
      "Ġplease": 4569,
      "Ġhappy": 4570,
      "Ġtechniques": 4571,
      "Ġintroduced": 4572,
      "ĠMat": 4573,
      "Ġcollect": 4574,
      "ĠInst": 4575,
      "Ġjoined": 4576,
      "Ġsteps": 4577,
      "77": 4578,
      "Ġaffect": 4579,
      "mark": 4580,
      ";\\": 4581,
      "Ġaspect": 4582,
      "uty": 4583,
      "nel": 4584,
      "asure": 4585,
      "MS": 4586,
      "Ġfeeling": 4587,
      "Ġreceive": 4588,
      "Ġdistribut": 4589,
      "Ġrare": 4590,
      "ilies": 4591,
      "van": 4592,
      "Ġdefe": 4593,
      "Ġprograms": 4594,
      "uments": 4595,
      "iced": 4596,
      "Ġ35": 4597,
      "Ġpal": 4598,
      "Ġeffort": 4599,
      "ĠIII": 4600,
      "Ġorganization": 4601,
      "Ġunits": 4602,
      "Ġbeautiful": 4603,
      "ascular": 4604,
      "Oh": 4605,
      "ĠQue": 4606,
      "ki": 4607,
      "Ġlooks": 4608,
      "ĠMary": 4609,
      "Ġregions": 4610,
      "Ġinteresting": 4611,
      "Ġerror": 4612,
      "Ġprocedure": 4613,
      "ocy": 4614,
      "rat": 4615,
      "Ġtask": 4616,
      "Ġdream": 4617,
      "Ġprint": 4618,
      "Ġstore": 4619,
      "Ġdetect": 4620,
      "Ġbul": 4621,
      "Ġfear": 4622,
      "Ġspot": 4623,
      "Ġadop": 4624,
      "Ġadapt": 4625,
      "works": 4626,
      "ester": 4627,
      "Ġbow": 4628,
      "no": 4629,
      "Ġmort": 4630,
      "Ġreduction": 4631,
      "Ġleaving": 4632,
      "Be": 4633,
      "Ġshoot": 4634,
      "iÃ": 4635,
      "ĠHam": 4636,
      "Ġbasic": 4637,
      "Ġteams": 4638,
      "ena": 4639,
      "abla": 4640,
      "ĠBoth": 4641,
      "Ġmanufact": 4642,
      "ban": 4643,
      "Ġsusp": 4644,
      "ldots": 4645,
      "}]": 4646,
      "Ġtruth": 4647,
      "duc": 4648,
      "Ġfailed": 4649,
      "Ġdecrease": 4650,
      "ĠChinese": 4651,
      "PA": 4652,
      "Ġinstit": 4653,
      "atever": 4654,
      "Ġpregn": 4655,
      "ĠMa": 4656,
      "urance": 4657,
      "Ġextrem": 4658,
      "Ġarrest": 4659,
      "Ġvisual": 4660,
      "ĠDiv": 4661,
      "Ġbeg": 4662,
      "oster": 4663,
      "bert": 4664,
      "udd": 4665,
      "Ġ2003": 4666,
      "ube": 4667,
      "Ġthick": 4668,
      "Ġceleb": 4669,
      "Ġtalking": 4670,
      "gra": 4671,
      "Ġtree": 4672,
      "Ġpiece": 4673,
      "Ġreading": 4674,
      "Ġmachine": 4675,
      "osen": 4676,
      "acing": 4677,
      "Ġnation": 4678,
      "ya": 4679,
      "Ġprem": 4680,
      "Ġmessage": 4681,
      "Ġmajority": 4682,
      "nabla": 4683,
      "rag": 4684,
      "Ġdiet": 4685,
      "Ġscale": 4686,
      "Ġaware": 4687,
      "ĠLaw": 4688,
      "Ġelev": 4689,
      "....": 4690,
      "Ġdrink": 4691,
      "Ġrules": 4692,
      "Ġachieve": 4693,
      "Ġserious": 4694,
      "Ġproof": 4695,
      "Phi": 4696,
      "Ġyield": 4697,
      "ĠKe": 4698,
      "la": 4699,
      "Ġopportunity": 4700,
      "Ġcollection": 4701,
      "Ġpulled": 4702,
      "Ġstress": 4703,
      "Ġeventually": 4704,
      "gged": 4705,
      "ĠAngel": 4706,
      "ĠOff": 4707,
      "inf": 4708,
      "Ġhus": 4709,
      "illing": 4710,
      "Ġcomfort": 4711,
      "ĠBay": 4712,
      "Ġnames": 4713,
      "Ġleader": 4714,
      "Ġcru": 4715,
      "Ġrot": 4716,
      "Ġcritical": 4717,
      "Lambda": 4718,
      "Ġchalleng": 4719,
      "Ġsetting": 4720,
      "place": 4721,
      "ĠFurther": 4722,
      "nes": 4723,
      "Ġresponses": 4724,
      "Ġnorm": 4725,
      "Ġdespite": 4726,
      "Ġfresh": 4727,
      "Ġoffered": 4728,
      "SV": 4729,
      "Ġsynd": 4730,
      "Ġgrowing": 4731,
      "Ġfailure": 4732,
      "ET": 4733,
      "68": 4734,
      "ĠGreen": 4735,
      "Ex": 4736,
      "Ġdistrict": 4737,
      "ĠMiss": 4738,
      "Ġletter": 4739,
      "Ġded": 4740,
      "Ġcas": 4741,
      "encies": 4742,
      "ologic": 4743,
      "atal": 4744,
      "Ġax": 4745,
      "Ġprison": 4746,
      "ĠBu": 4747,
      "ita": 4748,
      "ners": 4749,
      "spect": 4750,
      "ocol": 4751,
      "ĠSal": 4752,
      "emia": 4753,
      "Ġemail": 4754,
      "mun": 4755,
      "Ġreplace": 4756,
      "Ġexperiments": 4757,
      "Ġtrain": 4758,
      "tra": 4759,
      "Ġsources": 4760,
      "anish": 4761,
      "Ġscore": 4762,
      "sm": 4763,
      "Ġsmooth": 4764,
      "},$": 4765,
      "ona": 4766,
      "Ġcapacity": 4767,
      "Ġcompleted": 4768,
      "Ġking": 4769,
      "Ġbecomes": 4770,
      "reme": 4771,
      "Ġexpress": 4772,
      "DS": 4773,
      "ito": 4774,
      "ĠMil": 4775,
      "irmed": 4776,
      "subset": 4777,
      "Ġsafety": 4778,
      "Ġ80": 4779,
      "Ġfirm": 4780,
      "Ġminor": 4781,
      "Ġpow": 4782,
      "iable": 4783,
      "Ġguard": 4784,
      "gest": 4785,
      "ellow": 4786,
      "Ġcombined": 4787,
      "IV": 4788,
      "Ġhappen": 4789,
      "Ġunderstanding": 4790,
      "Ġrise": 4791,
      "otion": 4792,
      "64": 4793,
      "}^{(": 4794,
      "Ġclearly": 4795,
      "Ġhuge": 4796,
      "ĠGermany": 4797,
      "kappa": 4798,
      "Ġchronic": 4799,
      "ira": 4800,
      "reek": 4801,
      "Ġmac": 4802,
      "ĠInter": 4803,
      "Ġlabor": 4804,
      "ka": 4805,
      "ĠSuper": 4806,
      "Ġgly": 4807,
      "Ġtelevision": 4808,
      "isation": 4809,
      "Ġrule": 4810,
      "Ġdrugs": 4811,
      "Ġcook": 4812,
      "ĠChristian": 4813,
      "Ġacute": 4814,
      "Ġsurgery": 4815,
      "Ġweb": 4816,
      "ulating": 4817,
      "^{(": 4818,
      "Ġmetabol": 4819,
      "Ġ<": 4820,
      "}\\,": 4821,
      "Ġ2001": 4822,
      "Ġsolutions": 4823,
      "ĠHen": 4824,
      "rates": 4825,
      "cons": 4826,
      "mitted": 4827,
      "ĠSl": 4828,
      "ĠMad": 4829,
      "ĠBr": 4830,
      "Ġshop": 4831,
      "ĠSub": 4832,
      "Ġsea": 4833,
      "Ġagent": 4834,
      "ĠSection": 4835,
      "Ġmaybe": 4836,
      "Ġprefer": 4837,
      "Ġschools": 4838,
      "}/": 4839,
      "erved": 4840,
      "Ġsor": 4841,
      "Ġchannel": 4842,
      "Ġensure": 4843,
      "Ġtraditional": 4844,
      "MP": 4845,
      "dependent": 4846,
      "Ġwave": 4847,
      "lets": 4848,
      "Ġnuclear": 4849,
      "arc": 4850,
      "eline": 4851,
      "US": 4852,
      "itivity": 4853,
      "zed": 4854,
      "ternal": 4855,
      "duce": 4856,
      "osc": 4857,
      "Ġstrugg": 4858,
      "ĠAut": 4859,
      "Ġincreases": 4860,
      "Ġign": 4861,
      "ĠFed": 4862,
      "ĠCO": 4863,
      "Ġforeign": 4864,
      "cles": 4865,
      "ĠĠĠ": 4866,
      "otimes": 4867,
      "cor": 4868,
      "Ġsets": 4869,
      "rices": 4870,
      "Ġseparate": 4871,
      "Ġenem": 4872,
      "Ġtrial": 4873,
      "ĠRoad": 4874,
      "Ġforced": 4875,
      "Ġdestroy": 4876,
      "ĠAdd": 4877,
      "Ġ2002": 4878,
      "Ġideas": 4879,
      "Ġsave": 4880,
      "Ġpull": 4881,
      "Ġpeace": 4882,
      "Ġcort": 4883,
      "Ġepisode": 4884,
      "gy": 4885,
      "Well": 4886,
      "acters": 4887,
      "Ġequival": 4888,
      "Sigma": 4889,
      "othe": 4890,
      "Ġopening": 4891,
      "Ġcontrols": 4892,
      "RE": 4893,
      "Ġappearance": 4894,
      "Ġhelped": 4895,
      "athy": 4896,
      "Ġ90": 4897,
      "Ġcomponent": 4898,
      "Ġtests": 4899,
      "ĠFigure": 4900,
      "Ġmist": 4901,
      "stroke": 4902,
      "ĠRob": 4903,
      "circ": 4904,
      "Ġtom": 4905,
      "ĠTex": 4906,
      "67": 4907,
      "Ġrout": 4908,
      "Ġworkers": 4909,
      "Ġsynthesis": 4910,
      "ship": 4911,
      "Ġreduce": 4912,
      "uman": 4913,
      "Ġbelong": 4914,
      "Ġwalked": 4915,
      "ĠUnion": 4916,
      "Ġunf": 4917,
      "mm": 4918,
      "Ġexperimental": 4919,
      "mbox": 4920,
      "Ġplaces": 4921,
      "ipped": 4922,
      "ager": 4923,
      "Ġdistinct": 4924,
      "Ġgets": 4925,
      "othing": 4926,
      "ĠArmy": 4927,
      "pling": 4928,
      "uit": 4929,
      "ĠWil": 4930,
      "des": 4931,
      "ĠDis": 4932,
      "ĠNews": 4933,
      "alian": 4934,
      "CA": 4935,
      "riage": 4936,
      "Ġextract": 4937,
      "ĠRem": 4938,
      "Ġremoved": 4939,
      "force": 4940,
      "Ġremaining": 4941,
      "Ġshape": 4942,
      "Ġinjury": 4943,
      "Ġteacher": 4944,
      "Ġencoura": 4945,
      "Ġdetected": 4946,
      "Ġcomparison": 4947,
      "ĠDel": 4948,
      "exp": 4949,
      "ĠSund": 4950,
      "Ġpun": 4951,
      "rd": 4952,
      "Ġahead": 4953,
      "Ġreference": 4954,
      "Ġrelatively": 4955,
      "Ġcarcin": 4956,
      "hors": 4957,
      "Ġwait": 4958,
      "Ġpicture": 4959,
      "69": 4960,
      "Ġfamilies": 4961,
      "Ġgoals": 4962,
      "Ġresources": 4963,
      "ician": 4964,
      "Ġsigned": 4965,
      "Ġscience": 4966,
      "Ġcaught": 4967,
      "Ġalgorithm": 4968,
      "Ġapplications": 4969,
      "Ġtend": 4970,
      "Ġtested": 4971,
      "Ġcontext": 4972,
      "ĠAssociation": 4973,
      "ĠRo": 4974,
      "\\|": 4975,
      "Ġhealthy": 4976,
      "Ġhol": 4977,
      "max": 4978,
      "Ġtim": 4979,
      "Ġserve": 4980,
      "ĠParty": 4981,
      "itors": 4982,
      "uries": 4983,
      "Ġmm": 4984,
      "Ġchain": 4985,
      "Ġtight": 4986,
      "asts": 4987,
      "ĠBill": 4988,
      "ribute": 4989,
      "Ġagents": 4990,
      "ĠâĢ¢": 4991,
      "Ġlatter": 4992,
      "ams": 4993,
      "Ġinvestigation": 4994,
      "Ġequation": 4995,
      "azine": 4996,
      "state": 4997,
      "Ġrang": 4998,
      "Ġalc": 4999,
      "ipment": 5000,
      "rog": 5001,
      "Ġabsol": 5002,
      "Ġmotion": 5003,
      "Ph": 5004,
      "Ġcrow": 5005,
      "eal": 5006,
      "Ġolder": 5007,
      "ml": 5008,
      "abil": 5009,
      "Ġhorm": 5010,
      "ĠMag": 5011,
      "---|---|": 5012,
      "Ġkit": 5013,
      "Ġlayer": 5014,
      "Ġillust": 5015,
      "Ġresulting": 5016,
      "ĠCongress": 5017,
      "Ġcovered": 5018,
      "85": 5019,
      "Ġpaid": 5020,
      "Ġbacter": 5021,
      "Ġven": 5022,
      "Ġalle": 5023,
      "izations": 5024,
      "Ġprocesses": 5025,
      "Ġnine": 5026,
      "ĠCommun": 5027,
      "Ġmorph": 5028,
      "ĠOp": 5029,
      "Ġaffected": 5030,
      "ifically": 5031,
      "Ġfederal": 5032,
      "atically": 5033,
      "ĠInstitute": 5034,
      "ĠStar": 5035,
      "ĠBecause": 5036,
      "ĠCompany": 5037,
      "ĠVir": 5038,
      "ĠMet": 5039,
      "Ġsitu": 5040,
      "Ġtox": 5041,
      "Ġinvestigated": 5042,
      "Ġpowerful": 5043,
      "ĠOh": 5044,
      "Why": 5045,
      "omal": 5046,
      "do": 5047,
      "Ġconsequ": 5048,
      "Ġfinding": 5049,
      "Ġsend": 5050,
      "ĠAlso": 5051,
      "related": 5052,
      "Ġwish": 5053,
      "rical": 5054,
      "ĠEvery": 5055,
      "Ġfle": 5056,
      "abel": 5057,
      "Ġmer": 5058,
      "ĠPre": 5059,
      "iders": 5060,
      "top": 5061,
      "Ġagreement": 5062,
      "ette": 5063,
      "Ġhusband": 5064,
      "^{+": 5065,
      "kern": 5066,
      "Ġfarm": 5067,
      "ĠGold": 5068,
      "Ġsolid": 5069,
      "ashed": 5070,
      "Ġexpressed": 5071,
      "class": 5072,
      "Ġvalid": 5073,
      "Ġ45": 5074,
      "Ġcollege": 5075,
      "ĠTur": 5076,
      "Ġproviding": 5077,
      "Ġexpand": 5078,
      "Ġlic": 5079,
      "Ġring": 5080,
      "Ġ70": 5081,
      "level": 5082,
      "dots": 5083,
      "Ġscene": 5084,
      "Ġprepared": 5085,
      "~{}": 5086,
      "enced": 5087,
      "Ġhadn": 5088,
      "xy": 5089,
      "hold": 5090,
      "Ġorigin": 5091,
      "Ġuncertain": 5092,
      "Ġreasons": 5093,
      "ĠAre": 5094,
      "aud": 5095,
      "ĠPri": 5096,
      "Ġantibodies": 5097,
      "ĠTherefore": 5098,
      "Ġharm": 5099,
      "ĠHill": 5100,
      "Ġindex": 5101,
      "ĠTor": 5102,
      "Ġcertainly": 5103,
      "ĠOver": 5104,
      "ĠLemma": 5105,
      "Ġprove": 5106,
      "Ġeast": 5107,
      "zen": 5108,
      "Ġrelation": 5109,
      "ĠSing": 5110,
      "Ġwaiting": 5111,
      "OT": 5112,
      "Ġfraction": 5113,
      "ĠMo": 5114,
      "ĠAccording": 5115,
      "Ġjoint": 5116,
      "Ġconnected": 5117,
      "ĠMex": 5118,
      "Ġrequires": 5119,
      "Ġincorpor": 5120,
      "irty": 5121,
      "43": 5122,
      "inity": 5123,
      "Ġresistance": 5124,
      "ola": 5125,
      "Ġruns": 5126,
      "ĠWhy": 5127,
      "ĠEv": 5128,
      "eck": 5129,
      "widet": 5130,
      "Ã¤": 5131,
      "atrix": 5132,
      "Ġoptim": 5133,
      "Ġwest": 5134,
      "Ġcharacters": 5135,
      "Ġma": 5136,
      "Ġearth": 5137,
      "widetilde": 5138,
      "Ġindicated": 5139,
      "esh": 5140,
      "Ġstreet": 5141,
      "Ġsociety": 5142,
      "ĠRobert": 5143,
      "Ġarchitect": 5144,
      "Ġmentioned": 5145,
      "Con": 5146,
      "Ġshut": 5147,
      "Ġappropriate": 5148,
      "Ġsymptoms": 5149,
      "Ġmovie": 5150,
      "ogle": 5151,
      "Ġactions": 5152,
      "ario": 5153,
      "ser": 5154,
      "Ġutil": 5155,
      "ĠJapanese": 5156,
      "eria": 5157,
      "Ġquiet": 5158,
      "ĠWind": 5159,
      "adian": 5160,
      "Ġwants": 5161,
      "Ġvs": 5162,
      "ĠEarth": 5163,
      "Ġlearned": 5164,
      "pected": 5165,
      "Ġbottom": 5166,
      "Ġmaterials": 5167,
      "Ġcommercial": 5168,
      "%,": 5169,
      "Ġcoach": 5170,
      "Ġinternal": 5171,
      "ĠRussian": 5172,
      "Ġnom": 5173,
      "ollowing": 5174,
      "IG": 5175,
      "79": 5176,
      "Ġmiles": 5177,
      "Ġestimated": 5178,
      "venue": 5179,
      "Ġhypot": 5180,
      "Ġbelieved": 5181,
      "Ġvector": 5182,
      "tical": 5183,
      "(-": 5184,
      "teen": 5185,
      "anted": 5186,
      "Ġantigen": 5187,
      "Ġnice": 5188,
      "Ġexposure": 5189,
      "Ġestablish": 5190,
      "Ġreflect": 5191,
      "Ġvan": 5192,
      "edom": 5193,
      "Ġofficer": 5194,
      "Ġstanding": 5195,
      "42": 5196,
      "}{-": 5197,
      "Ġvac": 5198,
      "ĠKore": 5199,
      "Ġslowly": 5200,
      "Ġvictim": 5201,
      "%.": 5202,
      "Ġtempor": 5203,
      "Ġdry": 5204,
      "ochem": 5205,
      "ĠIg": 5206,
      "ervation": 5207,
      "orage": 5208,
      "Ġvirt": 5209,
      "Ġprojects": 5210,
      "ĠNor": 5211,
      "Ġcosts": 5212,
      "Ġbag": 5213,
      "itely": 5214,
      "ĠPost": 5215,
      "Ġauthors": 5216,
      "Ġstories": 5217,
      "Ġsuggests": 5218,
      "vec": 5219,
      "Ġmanner": 5220,
      "Ġended": 5221,
      "Ġexercise": 5222,
      "EL": 5223,
      "Ġdefine": 5224,
      "Ġopin": 5225,
      "from": 5226,
      "avy": 5227,
      "ĠSmith": 5228,
      "ĠMany": 5229,
      "Ġlived": 5230,
      "Ġstructures": 5231,
      "Ġdescript": 5232,
      "02": 5233,
      "ivo": 5234,
      "esis": 5235,
      "Ġbes": 5236,
      "IL": 5237,
      "Ġresulted": 5238,
      "Ġconfirmed": 5239,
      "Ġsupported": 5240,
      "Ġanimal": 5241,
      "ĠSpec": 5242,
      "Ġ32": 5243,
      "imb": 5244,
      "Ã¬": 5245,
      "Ġclust": 5246,
      "ĠSun": 5247,
      "ĠTom": 5248,
      "Ġsmile": 5249,
      "Ġstream": 5250,
      "Ġmission": 5251,
      "Ġelectric": 5252,
      "Ġneck": 5253,
      "icated": 5254,
      "|-": 5255,
      "Ġexists": 5256,
      "Ġelectron": 5257,
      "free": 5258,
      "Ġgar": 5259,
      "di": 5260,
      "Ġselection": 5261,
      "house": 5262,
      "Ġcustomers": 5263,
      "Ġprogress": 5264,
      "Ġrail": 5265,
      "Ġapply": 5266,
      "apped": 5267,
      "ĠTheir": 5268,
      "Ġsufficient": 5269,
      "ĠDi": 5270,
      "arden": 5271,
      "Ġpit": 5272,
      "ĠWell": 5273,
      "ĠDistrict": 5274,
      "ocard": 5275,
      "}^{-": 5276,
      "Ġstated": 5277,
      "ĠRad": 5278,
      "Ġtesting": 5279,
      "riday": 5280,
      "Ġremov": 5281,
      "Ġmanaged": 5282,
      "RNA": 5283,
      "----": 5284,
      "Le": 5285,
      "uled": 5286,
      "Ġquarter": 5287,
      "Ġeat": 5288,
      "ĠBer": 5289,
      "ĠPeter": 5290,
      "76": 5291,
      "istan": 5292,
      "Ġmel": 5293,
      "ĠOut": 5294,
      "Ġantibody": 5295,
      "Ġsell": 5296,
      "ĠTexas": 5297,
      "Ġhar": 5298,
      "lx": 5299,
      "inations": 5300,
      "ĠWestern": 5301,
      "Ġnodded": 5302,
      "inner": 5303,
      "phas": 5304,
      "Ġinstall": 5305,
      "ello": 5306,
      "Ġfourth": 5307,
      "Ġrecords": 5308,
      "Ġrenal": 5309,
      "Ġefforts": 5310,
      "Ġast": 5311,
      "ĠEach": 5312,
      "Ġgenerated": 5313,
      "Ġdrop": 5314,
      "ui": 5315,
      "Ġinstrum": 5316,
      "omer": 5317,
      "Ġmostly": 5318,
      "Ġreact": 5319,
      "Ġmetal": 5320,
      "orter": 5321,
      "08": 5322,
      "ĠFrank": 5323,
      "Ġshowing": 5324,
      "Ġinteraction": 5325,
      "ĠThomas": 5326,
      "Ġexchange": 5327,
      "Ġ1990": 5328,
      "Ġclasses": 5329,
      "cis": 5330,
      "Ġparameter": 5331,
      "ĠChampionship": 5332,
      "Ġspirit": 5333,
      "Ġguess": 5334,
      "))": 5335,
      "Ġstuff": 5336,
      "ellular": 5337,
      "ati": 5338,
      "ĠScott": 5339,
      "ket": 5340,
      "Ġofficials": 5341,
      "Ġchallenge": 5342,
      "Ġinterested": 5343,
      "Ġequipment": 5344,
      "mas": 5345,
      "itness": 5346,
      "ĠJes": 5347,
      "Ġrecip": 5348,
      "Ġsyndrome": 5349,
      "Ġcopy": 5350,
      "=\"": 5351,
      "Ġstimulation": 5352,
      "rain": 5353,
      "rating": 5354,
      "Ġcolon": 5355,
      "ado": 5356,
      "Ġfields": 5357,
      "Ġelim": 5358,
      "upp": 5359,
      "Ġessential": 5360,
      "Ġadvantage": 5361,
      "abit": 5362,
      "Ġpet": 5363,
      "miss": 5364,
      "Ġnerv": 5365,
      "edy": 5366,
      "NN": 5367,
      "osite": 5368,
      "Ġmotor": 5369,
      "Ġcritic": 5370,
      "Ġkids": 5371,
      "Ġexplained": 5372,
      "icular": 5373,
      "Ġpig": 5374,
      "Ġcoord": 5375,
      "ĠSur": 5376,
      "Ġholding": 5377,
      "06": 5378,
      "Ġitems": 5379,
      "Ġpatterns": 5380,
      "Ġmix": 5381,
      "eech": 5382,
      "Ġcitiz": 5383,
      "car": 5384,
      "Ġrepeated": 5385,
      "03": 5386,
      "ĠPlay": 5387,
      "Ġexisting": 5388,
      "opic": 5389,
      "Ġneighbor": 5390,
      "Ġhall": 5391,
      "Ġbird": 5392,
      "ext": 5393,
      "Ġabsor": 5394,
      "Ġconnect": 5395,
      "Ġdomain": 5396,
      "agen": 5397,
      "Ġiron": 5398,
      "cup": 5399,
      "IA": 5400,
      "CO": 5401,
      "Ġconnection": 5402,
      "Ġagreed": 5403,
      "Ġfunctional": 5404,
      "Don": 5405,
      "ĠIS": 5406,
      "Ġ2020": 5407,
      "Ġexplain": 5408,
      "57": 5409,
      "ĠRoman": 5410,
      "een": 5411,
      "ĠNa": 5412,
      "Ġchemical": 5413,
      "Ġconsistent": 5414,
      "Ġrecommend": 5415,
      "Ġoptions": 5416,
      "ptide": 5417,
      "onald": 5418,
      "Ġbeat": 5419,
      "ĠUnder": 5420,
      "allel": 5421,
      "Ġinfl": 5422,
      "Ġblog": 5423,
      "Ġmill": 5424,
      "Ġvote": 5425,
      "41": 5426,
      "MA": 5427,
      "ĠKh": 5428,
      "Ġextended": 5429,
      "aine": 5430,
      "Ġvel": 5431,
      "Ġdigital": 5432,
      "Ġbud": 5433,
      "Ġtun": 5434,
      "ĠGrand": 5435,
      "ogl": 5436,
      "09": 5437,
      "Ġsister": 5438,
      "ĠFlor": 5439,
      "cale": 5440,
      "Ġmeasures": 5441,
      "His": 5442,
      "ĠHealth": 5443,
      "Ġattract": 5444,
      "Ġimportance": 5445,
      "ygen": 5446,
      "Ġspin": 5447,
      "Ġsales": 5448,
      "icks": 5449,
      "Ġdelay": 5450,
      "Ġzero": 5451,
      "unicip": 5452,
      "yth": 5453,
      "ĠAnn": 5454,
      "Ġdirected": 5455,
      "ĠSunday": 5456,
      "Ġnoise": 5457,
      "Ġrank": 5458,
      "umber": 5459,
      "Ġpush": 5460,
      "Ġdoll": 5461,
      "Ġ($": 5462,
      "{)": 5463,
      "vention": 5464,
      "Ġstrategy": 5465,
      "Ġinterp": 5466,
      "Ġlatest": 5467,
      "Ġalt": 5468,
      "While": 5469,
      "Ġentered": 5470,
      "From": 5471,
      "Ġfluid": 5472,
      "Ġmonitor": 5473,
      "aked": 5474,
      "Ġseat": 5475,
      "Ġleads": 5476,
      "Ġexcell": 5477,
      "Ġgast": 5478,
      "Ġinstance": 5479,
      "Ġliterature": 5480,
      "CD": 5481,
      "Se": 5482,
      "chers": 5483,
      "Ġcontained": 5484,
      "Ġderived": 5485,
      "ĠJim": 5486,
      "Pl": 5487,
      "iveness": 5488,
      "ĠMond": 5489,
      "Ġgeneration": 5490,
      "ricular": 5491,
      "Ġbaby": 5492,
      "ĠMel": 5493,
      "Ġreplaced": 5494,
      "Ġstars": 5495,
      "ented": 5496,
      "Ġneuro": 5497,
      "ĠAfrica": 5498,
      "bour": 5499,
      "cel": 5500,
      "Ġinvolve": 5501,
      "Ġesc": 5502,
      "ĠMer": 5503,
      "Ġriver": 5504,
      "Ġliqu": 5505,
      "Ġoption": 5506,
      "Ġevaluation": 5507,
      "ds": 5508,
      "Ġskills": 5509,
      "ĠMount": 5510,
      "Ġbillion": 5511,
      "Ġarrived": 5512,
      "ĠBook": 5513,
      "Ġchest": 5514,
      "cdots": 5515,
      "56": 5516,
      "ĠEq": 5517,
      "Ġjournal": 5518,
      "appro": 5519,
      "Ġbill": 5520,
      "Ġsuc": 5521,
      "apping": 5522,
      "ĠTechn": 5523,
      "ĠUp": 5524,
      "ingly": 5525,
      "Ġcycle": 5526,
      "orrow": 5527,
      "Ġjoin": 5528,
      "Ġchief": 5529,
      "Ġcorner": 5530,
      "Ġefficient": 5531,
      "Ġimproved": 5532,
      "osal": 5533,
      "oprote": 5534,
      "FL": 5535,
      "Ġplanning": 5536,
      "gments": 5537,
      "aval": 5538,
      "Ġmaster": 5539,
      "07": 5540,
      "58": 5541,
      "98": 5542,
      "icit": 5543,
      "Ġpoll": 5544,
      "ircraft": 5545,
      "lam": 5546,
      "Ġdiscovered": 5547,
      "ĠMinister": 5548,
      "rich": 5549,
      "Ġrelax": 5550,
      "rot": 5551,
      "ĠIsland": 5552,
      "ĠIr": 5553,
      "Ġprotection": 5554,
      "Ġcore": 5555,
      "orial": 5556,
      "Ġactual": 5557,
      "Ġhur": 5558,
      "ĠFriday": 5559,
      "reated": 5560,
      "Ġdatas": 5561,
      "Ġnotice": 5562,
      "org": 5563,
      "ĠAustralian": 5564,
      "Ġmanager": 5565,
      "ctors": 5566,
      "Ġnone": 5567,
      "operative": 5568,
      "antly": 5569,
      "ications": 5570,
      "Ġcorrelation": 5571,
      "ache": 5572,
      "Ġprobability": 5573,
      "ĠIts": 5574,
      "Ġice": 5575,
      "ructure": 5576,
      "ĠSystem": 5577,
      "agger": 5578,
      "Ġpil": 5579,
      "Ġcompetition": 5580,
      "ĠSecond": 5581,
      "Ġroute": 5582,
      "ĠProp": 5583,
      "Ġdropped": 5584,
      "what": 5585,
      "eq": 5586,
      "ĠPress": 5587,
      "Ġdoubt": 5588,
      "Ġspoke": 5589,
      "ossible": 5590,
      "ĠFe": 5591,
      "Ġrow": 5592,
      "Ġvehicle": 5593,
      "cription": 5594,
      "Ġampl": 5595,
      "Ġassume": 5596,
      "Ġbecoming": 5597,
      "Ġtwenty": 5598,
      "Ġ1999": 5599,
      "how": 5600,
      "Ġsupposed": 5601,
      "Ġpool": 5602,
      "oned": 5603,
      "ĠDet": 5604,
      "Ġabsence": 5605,
      "LA": 5606,
      "Ġintellig": 5607,
      "ota": 5608,
      "Ġinhibition": 5609,
      "ashion": 5610,
      "atures": 5611,
      "Ġsexual": 5612,
      "Ġdetection": 5613,
      "ports": 5614,
      "vest": 5615,
      "road": 5616,
      "Ġcircum": 5617,
      "odium": 5618,
      "chang": 5619,
      "osh": 5620,
      "Ġtrees": 5621,
      "illa": 5622,
      "idden": 5623,
      "olved": 5624,
      "apers": 5625,
      "eless": 5626,
      ")(": 5627,
      "Ġtrig": 5628,
      "arr": 5629,
      "mid": 5630,
      "uke": 5631,
      "ĠScience": 5632,
      "SA": 5633,
      "Ġtow": 5634,
      "Ġbright": 5635,
      "Ġvot": 5636,
      "apter": 5637,
      "ateral": 5638,
      "Ġshared": 5639,
      "ĠLouis": 5640,
      "ĠResearch": 5641,
      "Ġstone": 5642,
      "Ġguy": 5643,
      "uls": 5644,
      "Ġachieved": 5645,
      "CT": 5646,
      "04": 5647,
      "Ġidentify": 5648,
      "Ġadjust": 5649,
      "Ġflat": 5650,
      "Ġarmy": 5651,
      "Ġamino": 5652,
      "erences": 5653,
      "Ġfilled": 5654,
      "ĠCentral": 5655,
      "Ġfix": 5656,
      "char": 5657,
      "Ġalcoh": 5658,
      "ĠAward": 5659,
      "Ġaccur": 5660,
      "ĠFin": 5661,
      "Ġnut": 5662,
      "${\\": 5663,
      "isher": 5664,
      "yr": 5665,
      "uses": 5666,
      "ishes": 5667,
      "ipher": 5668,
      "\\{": 5669,
      "arsh": 5670,
      "Ġleague": 5671,
      "Ġholds": 5672,
      "ĠRussia": 5673,
      "ĠBest": 5674,
      "Ġspeech": 5675,
      "Ġcab": 5676,
      "Ġattacks": 5677,
      "ĠLeg": 5678,
      "Ġgain": 5679,
      "orders": 5680,
      "po": 5681,
      "Ġlaugh": 5682,
      "Ġdevices": 5683,
      "Ġtools": 5684,
      "while": 5685,
      "Ġterror": 5686,
      "amics": 5687,
      ").$": 5688,
      "Ġmode": 5689,
      "Ġdefinition": 5690,
      "UN": 5691,
      "burg": 5692,
      "Ġbath": 5693,
      "Ġreligious": 5694,
      "Ġconflic": 5695,
      "Ġ1980": 5696,
      "Ġsupply": 5697,
      "Ġchart": 5698,
      "ĠCarol": 5699,
      "arant": 5700,
      "night": 5701,
      "imensional": 5702,
      "Ġmainly": 5703,
      "ĠOnly": 5704,
      "ĠGood": 5705,
      "ĠSil": 5706,
      "kay": 5707,
      "Ġfort": 5708,
      "ĠVol": 5709,
      "ĠBrown": 5710,
      "Ġalternative": 5711,
      "stra": 5712,
      "Ġknows": 5713,
      "Ġfet": 5714,
      "Ġcredit": 5715,
      "Ġregist": 5716,
      "Our": 5717,
      "Ġsmiled": 5718,
      "ĠDivision": 5719,
      "Ġlov": 5720,
      "ĠInc": 5721,
      "Ġnarrow": 5722,
      "Ġwhatever": 5723,
      "ancing": 5724,
      "ĠFore": 5725,
      "Ġstock": 5726,
      "Ġtrip": 5727,
      "Ġplus": 5728,
      "Ġcauses": 5729,
      "ĠBur": 5730,
      "ults": 5731,
      "Here": 5732,
      "Ġnumerous": 5733,
      "ĠCamp": 5734,
      "oplas": 5735,
      "scriptstyle": 5736,
      "Ġempt": 5737,
      "Ġtherm": 5738,
      "ĠOly": 5739,
      "ĠClub": 5740,
      "Ġaccomp": 5741,
      "Ġcloud": 5742,
      "Ġleaders": 5743,
      "Ġchosen": 5744,
      "iological": 5745,
      "Ġthrow": 5746,
      "Ġmeasurements": 5747,
      "Ġofficers": 5748,
      "Ġforest": 5749,
      "Ġgirls": 5750,
      "Ġminute": 5751,
      "Ġalter": 5752,
      "Ġtwice": 5753,
      "Ġotherwise": 5754,
      "agram": 5755,
      "Ġsymbol": 5756,
      "Ġamaz": 5757,
      "star": 5758,
      "inet": 5759,
      "Ġwatched": 5760,
      "Ġconfig": 5761,
      "zeta": 5762,
      "Ġcalcium": 5763,
      "monary": 5764,
      "going": 5765,
      "Ġoriginally": 5766,
      "Ġcharacteristics": 5767,
      "Ġregarding": 5768,
      "liament": 5769,
      "Ġbenefits": 5770,
      "ĠCommission": 5771,
      "ĠIran": 5772,
      "Ġsongs": 5773,
      "Ġcrew": 5774,
      "Ġvariables": 5775,
      "ĠProf": 5776,
      "ĠAN": 5777,
      "Ġdownload": 5778,
      "ĠJose": 5779,
      "Ġdescribe": 5780,
      "Ġvess": 5781,
      "ĠVict": 5782,
      "Ġsquare": 5783,
      "zo": 5784,
      "ĊĠ": 5785,
      "Ġdogs": 5786,
      "ĠRel": 5787,
      "Ã³": 5788,
      "yer": 5789,
      "aturday": 5790,
      "uracy": 5791,
      "Ġpure": 5792,
      "ĠGal": 5793,
      "Ġclaims": 5794,
      "Ġsurvival": 5795,
      "Ġsubstant": 5796,
      "Ġquantum": 5797,
      "Ġamb": 5798,
      "Ġwatching": 5799,
      "59": 5800,
      "Ġhypert": 5801,
      "Ġsac": 5802,
      "ĠThree": 5803,
      "phen": 5804,
      "oto": 5805,
      "]$": 5806,
      "DA": 5807,
      "Ġtut": 5808,
      "Ġpossibly": 5809,
      "Ġconvention": 5810,
      "Ġisland": 5811,
      "Ġseeing": 5812,
      "Ġagree": 5813,
      "ĠCharles": 5814,
      "Ġextremely": 5815,
      "EM": 5816,
      "Ġspok": 5817,
      "Ġcalls": 5818,
      "Ġrequirements": 5819,
      "Ġbenefit": 5820,
      "pire": 5821,
      "ounded": 5822,
      "Ġglucose": 5823,
      "Ġsuddenly": 5824,
      "stein": 5825,
      "=$": 5826,
      "ĠChic": 5827,
      "Ġgod": 5828,
      "}:": 5829,
      "hand": 5830,
      "Ġproceed": 5831,
      "RO": 5832,
      "Ġhtt": 5833,
      "ĠFace": 5834,
      "using": 5835,
      "Ġtransition": 5836,
      "ĠRoyal": 5837,
      "agement": 5838,
      "DP": 5839,
      "Ġmanif": 5840,
      "type": 5841,
      "Some": 5842,
      "Ġmouse": 5843,
      "Ġordered": 5844,
      "Ġcreating": 5845,
      "Ġmolecular": 5846,
      "Ġextent": 5847,
      "ĠWed": 5848,
      "ĠService": 5849,
      "ua": 5850,
      "yan": 5851,
      "ĠRichard": 5852,
      "crete": 5853,
      "ĠVirgin": 5854,
      "Ġevolution": 5855,
      "Ġwhis": 5856,
      "IP": 5857,
      "Ġcos": 5858,
      "Ġshoulder": 5859,
      "Ġexistence": 5860,
      "scope": 5861,
      "cious": 5862,
      "Ġdial": 5863,
      "BA": 5864,
      "ruit": 5865,
      "Ġstret": 5866,
      "Ġstable": 5867,
      "win": 5868,
      "Ġdoctor": 5869,
      "Ġdiam": 5870,
      "Ġuniform": 5871,
      "Ġclick": 5872,
      "Ġepit": 5873,
      "ints": 5874,
      "Ġlegisl": 5875,
      "west": 5876,
      "estival": 5877,
      "eds": 5878,
      "iliar": 5879,
      "gency": 5880,
      "amily": 5881,
      "CS": 5882,
      "ensions": 5883,
      "Ġproport": 5884,
      "fold": 5885,
      "idine": 5886,
      "Ġinsulin": 5887,
      "Ġsecondary": 5888,
      "Ġfans": 5889,
      "ogene": 5890,
      "âĢĿ.": 5891,
      "brid": 5892,
      "Ġdiab": 5893,
      "Ġconducted": 5894,
      "ĠFrancis": 5895,
      "ĠRock": 5896,
      "alse": 5897,
      "Ġleuk": 5898,
      "ĠCath": 5899,
      "ĠĠĠĠĠĠĠĠ": 5900,
      "Ġcrim": 5901,
      "GF": 5902,
      "Ġrealized": 5903,
      "yd": 5904,
      "Ġobjects": 5905,
      "ĠClass": 5906,
      "Ġ1998": 5907,
      "Ġcereb": 5908,
      "dot": 5909,
      "Ġrough": 5910,
      "ald": 5911,
      "ĠSum": 5912,
      "Ġrich": 5913,
      "}}}\\": 5914,
      "500": 5915,
      "Ġmig": 5916,
      "ifferent": 5917,
      "Ġsurvey": 5918,
      "Ġattend": 5919,
      "Ġderiv": 5920,
      "omorph": 5921,
      "unched": 5922,
      "BS": 5923,
      "Ġkitchen": 5924,
      "ĠDec": 5925,
      "Ġlesions": 5926,
      "specific": 5927,
      "Ġelectro": 5928,
      "aming": 5929,
      "Ġgran": 5930,
      "ĠMonday": 5931,
      "erior": 5932,
      "Ġtraffic": 5933,
      "ĠPeople": 5934,
      "Ġsust": 5935,
      "ĠAfrican": 5936,
      "edge": 5937,
      "ĠOlymp": 5938,
      "Ġcart": 5939,
      "Ġpossibility": 5940,
      "rine": 5941,
      "ĠInf": 5942,
      "ading": 5943,
      "Ġmixed": 5944,
      "ĠRet": 5945,
      "Ġshook": 5946,
      "ĠAcadem": 5947,
      "Ġactivation": 5948,
      "Ġminimum": 5949,
      "Ġ48": 5950,
      "ĠSant": 5951,
      "aze": 5952,
      "Ġdeveloping": 5953,
      "ĠTown": 5954,
      "Ġstorage": 5955,
      "Ġrestrict": 5956,
      "Ġaircraft": 5957,
      "Ġanalog": 5958,
      "ĠSee": 5959,
      "oday": 5960,
      "coming": 5961,
      "Ġalign": 5962,
      "stitution": 5963,
      "Ġsigns": 5964,
      "Ġsubs": 5965,
      "Ġment": 5966,
      "Since": 5967,
      "ĠPC": 5968,
      "ĠHel": 5969,
      "war": 5970,
      "Ġfingers": 5971,
      "Ġfrequently": 5972,
      "Ġstatist": 5973,
      "oding": 5974,
      "Ġfaith": 5975,
      "Ġadvanced": 5976,
      "Ġsensitive": 5977,
      "Ġcoff": 5978,
      "Ġsitting": 5979,
      "cho": 5980,
      "ĠTimes": 5981,
      "Ġlie": 5982,
      "Ġevening": 5983,
      "Ġ}\\": 5984,
      "ĠGoogle": 5985,
      "Ġcolle": 5986,
      "ĠÃ¨": 5987,
      "Ġmo": 5988,
      "Ġbroken": 5989,
      "Ġcoron": 5990,
      "Ġcorpor": 5991,
      "Ġcloser": 5992,
      "Ġsand": 5993,
      "asy": 5994,
      "ĠAP": 5995,
      "unte": 5996,
      "New": 5997,
      "Ġhorse": 5998,
      "icine": 5999,
      "ĠArch": 6000,
      "dimensional": 6001,
      "widehat": 6002,
      "oration": 6003,
      "LE": 6004,
      "ĠLike": 6005,
      "reb": 6006,
      "Ġrub": 6007,
      "ĠFlorida": 6008,
      "ĠCanadian": 6009,
      "Ġlaws": 6010,
      "Ġreject": 6011,
      "amber": 6012,
      "Ġwel": 6013,
      "Ġdress": 6014,
      "52": 6015,
      "Ġaden": 6016,
      "pective": 6017,
      "ĠLake": 6018,
      "ighter": 6019,
      "Ġnerve": 6020,
      "ĠBig": 6021,
      "Ġlean": 6022,
      "ytic": 6023,
      "ĠHenry": 6024,
      "Ġloved": 6025,
      "roat": 6026,
      "ses": 6027,
      "Ġrose": 6028,
      "Ġsides": 6029,
      "Ġreceptors": 6030,
      "eah": 6031,
      "SP": 6032,
      "Ġwinning": 6033,
      "ĠFound": 6034,
      "Ġfish": 6035,
      "Ġseconds": 6036,
      "resents": 6037,
      "Ġgli": 6038,
      "Ġsenior": 6039,
      "Ġplane": 6040,
      "Ġcatch": 6041,
      "Ġproved": 6042,
      "ĠĠĊ": 6043,
      "ĠIV": 6044,
      "Ġaren": 6045,
      "Ġexcellent": 6046,
      "align": 6047,
      "Ġweapons": 6048,
      "Ġrecognized": 6049,
      "RA": 6050,
      "pled": 6051,
      "oked": 6052,
      "ĠObama": 6053,
      "ergic": 6054,
      "ĠJud": 6055,
      "Ġclaimed": 6056,
      "ework": 6057,
      "rance": 6058,
      "Ġintended": 6059,
      "embly": 6060,
      "empor": 6061,
      "Ġcommunication": 6062,
      "raq": 6063,
      "$(": 6064,
      "Ġtele": 6065,
      "Ġcontinuous": 6066,
      "Ġ36": 6067,
      "ĠFour": 6068,
      "textrm": 6069,
      "Ġapprec": 6070,
      "Ġkiss": 6071,
      "Ġentry": 6072,
      "Ġstimul": 6073,
      "Ġequivalent": 6074,
      "}^{*": 6075,
      "Ġfamous": 6076,
      "Ġevaluated": 6077,
      "Ġbehavi": 6078,
      "ĠLos": 6079,
      "ĠMill": 6080,
      "Ġcoast": 6081,
      "Ġidentity": 6082,
      "Ġportion": 6083,
      "ker": 6084,
      "Ġwalls": 6085,
      "Ġsymmet": 6086,
      "ĠOnce": 6087,
      "Ġreconst": 6088,
      "adow": 6089,
      "Ġeconomy": 6090,
      "ĠMem": 6091,
      "Ġspend": 6092,
      "ansion": 6093,
      "Ġreality": 6094,
      "ĠFil": 6095,
      "Ġtick": 6096,
      "Ġodd": 6097,
      "cks": 6098,
      "Ġhang": 6099,
      "Ġtransform": 6100,
      "ĠUSA": 6101,
      "ĠST": 6102,
      "ĠSir": 6103,
      "know": 6104,
      "Ġfol": 6105,
      "Ġgrew": 6106,
      "Ġfighting": 6107,
      "Ġvary": 6108,
      "Ġannual": 6109,
      "ĠSaturday": 6110,
      "ocyte": 6111,
      "ĠNon": 6112,
      "Ġphil": 6113,
      "Ġdella": 6114,
      "Ġadding": 6115,
      "Ad": 6116,
      "ologies": 6117,
      "Ġrepresented": 6118,
      "CH": 6119,
      "Ġborder": 6120,
      "ception": 6121,
      "iant": 6122,
      "ĠChicago": 6123,
      "ĠSand": 6124,
      "ĠSociety": 6125,
      "ĠCommittee": 6126,
      "Ġ37": 6127,
      "ĠParis": 6128,
      "Ġleaves": 6129,
      "Ġrelevant": 6130,
      "Ġton": 6131,
      "Ġflight": 6132,
      "Ġave": 6133,
      "ait": 6134,
      "Bl": 6135,
      "urrent": 6136,
      "ĠpH": 6137,
      "Ġfavorite": 6138,
      "ĠMass": 6139,
      "icians": 6140,
      "Ġcontinues": 6141,
      "ĠMont": 6142,
      "abilities": 6143,
      "Ġtor": 6144,
      "Ġconstra": 6145,
      "Ġcolumn": 6146,
      "ĠCap": 6147,
      "ometric": 6148,
      "Ġvariable": 6149,
      "itory": 6150,
      "Ġcris": 6151,
      "54": 6152,
      "Ġframe": 6153,
      "/\\": 6154,
      "Ġbodies": 6155,
      "De": 6156,
      "Ġlegs": 6157,
      "Ġlisted": 6158,
      "Ġble": 6159,
      "53": 6160,
      "Ġnetworks": 6161,
      "Ġexamples": 6162,
      "ĠAmericans": 6163,
      "ĠÐ": 6164,
      "Ġbare": 6165,
      "ĠDen": 6166,
      "Ġplays": 6167,
      "ĠOld": 6168,
      "Ġresolution": 6169,
      "Ġplot": 6170,
      "racellular": 6171,
      "ĠArab": 6172,
      "Ġpossess": 6173,
      "Ġoccurs": 6174,
      "emic": 6175,
      "Ġassociation": 6176,
      "Ġdriving": 6177,
      "closes": 6178,
      "Ġhumans": 6179,
      "Ġmobile": 6180,
      "}}(\\": 6181,
      "Ġ)": 6182,
      "Ġhaven": 6183,
      "inton": 6184,
      "Ġexperienced": 6185,
      "look": 6186,
      "ucky": 6187,
      "0000": 6188,
      "ĠSol": 6189,
      "Ġoperating": 6190,
      "Ġallowing": 6191,
      "Ġrid": 6192,
      "Ġelected": 6193,
      "Ġprocessing": 6194,
      "ĠAny": 6195,
      "Ġ1970": 6196,
      "Ġveloc": 6197,
      "ĠGovernment": 6198,
      "Ġmere": 6199,
      "ca": 6200,
      "Ġforg": 6201,
      "Ġkm": 6202,
      "Ġpromot": 6203,
      "IF": 6204,
      "Ġparties": 6205,
      "Ġcollabor": 6206,
      "function": 6207,
      "ĠBob": 6208,
      "Ġcandidate": 6209,
      "ĠMax": 6210,
      "Ġdepart": 6211,
      "ĠTime": 6212,
      "ala": 6213,
      "Ġegg": 6214,
      "Ġrestaur": 6215,
      "Ġvictory": 6216,
      "Ġhell": 6217,
      "Ġhearing": 6218,
      "Ġbalance": 6219,
      "Ġreferred": 6220,
      "Ġmissing": 6221,
      "Ġmarriage": 6222,
      "raction": 6223,
      "Ġexpert": 6224,
      "Ġvivo": 6225,
      "ih": 6226,
      "ĠPo": 6227,
      "umin": 6228,
      "Ġsight": 6229,
      "Ġbond": 6230,
      "Ġemot": 6231,
      "Ġshif": 6232,
      "Ġacadem": 6233,
      "ye": 6234,
      "ostic": 6235,
      "Ġconsult": 6236,
      "Ġfinite": 6237,
      "Ġpieces": 6238,
      "96": 6239,
      "ĠEff": 6240,
      "zy": 6241,
      "Ġlose": 6242,
      "Ġcities": 6243,
      "?Â»": 6244,
      "Ġalcohol": 6245,
      "Ġtrend": 6246,
      "72": 6247,
      "Ġkick": 6248,
      "rors": 6249,
      "long": 6250,
      "ĠLong": 6251,
      "ING": 6252,
      "aser": 6253,
      "ĠSupp": 6254,
      "Ġsensitivity": 6255,
      "standing": 6256,
      "ĠCapt": 6257,
      "akers": 6258,
      "anda": 6259,
      "Ġsports": 6260,
      "Ġimplic": 6261,
      "Ġbuildings": 6262,
      "),\\": 6263,
      "net": 6264,
      "Ġnative": 6265,
      "ĠPet": 6266,
      "Ġdriver": 6267,
      "ĠRev": 6268,
      "Ġinh": 6269,
      "idase": 6270,
      "Ġemphas": 6271,
      "draw": 6272,
      "ĠRef": 6273,
      "Ġcharged": 6274,
      "Ġtail": 6275,
      "ĠBre": 6276,
      "aped": 6277,
      "ĠJo": 6278,
      "})=": 6279,
      "ĠItalian": 6280,
      "Ġhun": 6281,
      "itud": 6282,
      "Ġstorm": 6283,
      "uesday": 6284,
      "Ġoxygen": 6285,
      "rogen": 6286,
      "phone": 6287,
      "iano": 6288,
      "Ġsegment": 6289,
      "iser": 6290,
      "Ġdefense": 6291,
      "Ġkeeping": 6292,
      "ĠMcC": 6293,
      "Ġru": 6294,
      "ĠRNA": 6295,
      "These": 6296,
      "74": 6297,
      "astern": 6298,
      "izon": 6299,
      "Ġdiscussion": 6300,
      "Ġbreast": 6301,
      "SVG": 6302,
      "ĠTable": 6303,
      "Ġaccident": 6304,
      "ĠUsing": 6305,
      "Ġwitness": 6306,
      "73": 6307,
      "ĠIraq": 6308,
      "Ġstre": 6309,
      "Ġhurt": 6310,
      "ĠMusic": 6311,
      "Ġstead": 6312,
      "Ġcert": 6313,
      "Ġclosely": 6314,
      "Ġparticles": 6315,
      "Ġinjection": 6316,
      "Ġresear": 6317,
      "ĠMur": 6318,
      "ĠAv": 6319,
      "Ġsurg": 6320,
      "Ġconsists": 6321,
      "Ġexternal": 6322,
      "Ġgenes": 6323,
      "estic": 6324,
      "aded": 6325,
      "lxSVG": 6326,
      "Ġeasier": 6327,
      "Ġpositions": 6328,
      "Ġcontrolled": 6329,
      "ivery": 6330,
      "Ġcamera": 6331,
      "Ġwriter": 6332,
      "requ": 6333,
      "Ġfounded": 6334,
      "ĠCast": 6335,
      "Ġterrit": 6336,
      "{-": 6337,
      "Ġspecifically": 6338,
      "Ġdeliver": 6339,
      "Ġthin": 6340,
      "Ġoperator": 6341,
      "closescope": 6342,
      "Ġpicked": 6343,
      "ima": 6344,
      "Ġpointed": 6345,
      "Ġreceiving": 6346,
      "Ġmental": 6347,
      "ĠSecret": 6348,
      "ĠÂ£": 6349,
      "ĠSpanish": 6350,
      "Ġid": 6351,
      "Ġnode": 6352,
      "ĠOffice": 6353,
      "seud": 6354,
      "Ġconcluded": 6355,
      "ĠTHE": 6356,
      "Ġrecovery": 6357,
      "Ġlips": 6358,
      "Ġtypically": 6359,
      "ĠLuc": 6360,
      "Ġrepro": 6361,
      "Ġentirely": 6362,
      "Ġunknown": 6363,
      "However": 6364,
      "Ġshock": 6365,
      "Ġrepresents": 6366,
      "ĠFort": 6367,
      "ilton": 6368,
      "Ġcomments": 6369,
      "Ġspring": 6370,
      "}}^{\\": 6371,
      "aren": 6372,
      "Ġmunicip": 6373,
      "ĠBus": 6374,
      "reland": 6375,
      "utch": 6376,
      "gent": 6377,
      "Ġindeed": 6378,
      "rics": 6379,
      "Ġbridge": 6380,
      "Ġgent": 6381,
      "Ġincident": 6382,
      "Ġliquid": 6383,
      "Ġaspects": 6384,
      "Ġpray": 6385,
      "ĠSk": 6386,
      "Ġmagnetic": 6387,
      "Ġmurder": 6388,
      "Ġlaunch": 6389,
      "Ġcapable": 6390,
      "Ġfilms": 6391,
      "Ġperipher": 6392,
      "ounce": 6393,
      "Ġfinish": 6394,
      "Ġ1997": 6395,
      "otox": 6396,
      "Ġsubsequent": 6397,
      "Ġtu": 6398,
      "chol": 6399,
      "Ġtrouble": 6400,
      "ĠTR": 6401,
      "cut": 6402,
      "Ġtrained": 6403,
      "Ġvision": 6404,
      "Ġinitially": 6405,
      "Ġguitar": 6406,
      "gebra": 6407,
      "63": 6408,
      "Ġsmart": 6409,
      "Ġobservations": 6410,
      "Ġexposed": 6411,
      "Ġneither": 6412,
      "Ġsweet": 6413,
      "ĠWood": 6414,
      "Ġflag": 6415,
      "Ġcup": 6416,
      "History": 6417,
      "velopment": 6418,
      "51": 6419,
      "62": 6420,
      "Ġassay": 6421,
      "ĠHome": 6422,
      "Ġdefend": 6423,
      "ĠTer": 6424,
      "ĠHaw": 6425,
      "Ġbene": 6426,
      "icate": 6427,
      "Ġretain": 6428,
      "ĠFacebook": 6429,
      "Ġestimate": 6430,
      "helial": 6431,
      "Ġneurons": 6432,
      "ĠVictor": 6433,
      "Ġemployees": 6434,
      "Ġbroke": 6435,
      "ĠBet": 6436,
      "icy": 6437,
      "Ġaccum": 6438,
      "Ġdepartment": 6439,
      "Ġremark": 6440,
      "Ġcalling": 6441,
      "cean": 6442,
      "Ġnewsp": 6443,
      "Just": 6444,
      "ĠPhys": 6445,
      "Ġcollected": 6446,
      "elle": 6447,
      "Ġinhibited": 6448,
      "nament": 6449,
      "Ġ500": 6450,
      "ĠJoe": 6451,
      "Ġresidents": 6452,
      "hemat": 6453,
      "isms": 6454,
      "Ġstrongly": 6455,
      "crib": 6456,
      "ĠElect": 6457,
      "ursday": 6458,
      "Ġtub": 6459,
      "89": 6460,
      "uto": 6461,
      "Ġguarant": 6462,
      "71": 6463,
      "Ġtypical": 6464,
      "stood": 6465,
      "ĠWall": 6466,
      "hyth": 6467,
      "enses": 6468,
      "Ġcars": 6469,
      "Ġopinion": 6470,
      "Ġthousands": 6471,
      "ĠForce": 6472,
      "Ġaccuracy": 6473,
      "ective": 6474,
      "Ġdivision": 6475,
      "pos": 6476,
      "Ġfreedom": 6477,
      "Ġsoldiers": 6478,
      "Ġstrains": 6479,
      "Ġ1996": 6480,
      "Ġworse": 6481,
      "Ġindepend": 6482,
      "Ġpanel": 6483,
      "Ġgal": 6484,
      "ĠSar": 6485,
      "Ġcentre": 6486,
      "ĠGet": 6487,
      "enz": 6488,
      "Ġaccepted": 6489,
      "Ġhepat": 6490,
      "Ġinsurance": 6491,
      "|^{": 6492,
      "Ge": 6493,
      "itative": 6494,
      "Ġargument": 6495,
      "Ġthy": 6496,
      "Ġ33": 6497,
      "',": 6498,
      "Ġmeasurement": 6499,
      "May": 6500,
      "Ġorders": 6501,
      "Ġfiles": 6502,
      "Ġheight": 6503,
      "ĠMartin": 6504,
      "Ġmechanisms": 6505,
      "ci": 6506,
      "Ġcoe": 6507,
      "According": 6508,
      "ĠBank": 6509,
      "Ġabnormal": 6510,
      "weight": 6511,
      "Ab": 6512,
      "Ġformal": 6513,
      "Ġmassive": 6514,
      "Ġconcerned": 6515,
      "61": 6516,
      "ĠCle": 6517,
      "aneously": 6518,
      "Ġbranch": 6519,
      "igan": 6520,
      "Ġartist": 6521,
      "nesday": 6522,
      "ĠMicro": 6523,
      "bur": 6524,
      "iography": 6525,
      "Ġwalking": 6526,
      "ĠIN": 6527,
      "Ġdepth": 6528,
      "),$": 6529,
      "Ġscheme": 6530,
      "Ġconference": 6531,
      "Ġcalculated": 6532,
      "LC": 6533,
      "water": 6534,
      "Ġsequences": 6535,
      "Sp": 6536,
      "Ġhelps": 6537,
      "Ġcitizens": 6538,
      "Ġusual": 6539,
      "ĠMuslim": 6540,
      "uh": 6541,
      "Ġcardiac": 6542,
      "igg": 6543,
      "Ġ38": 6544,
      "Ġsections": 6545,
      "Qu": 6546,
      "EO": 6547,
      "utely": 6548,
      "IR": 6549,
      "ĠTuesday": 6550,
      "Ġdemonstrate": 6551,
      "Ġparallel": 6552,
      "ortunately": 6553,
      "ĠSpr": 6554,
      "ĠJul": 6555,
      "ocation": 6556,
      "Ġion": 6557,
      "Ġobst": 6558,
      "Ġcustomer": 6559,
      "ĠKar": 6560,
      "Ġsin": 6561,
      "Ġphenomen": 6562,
      "Ġappointed": 6563,
      "Ġfashion": 6564,
      "rons": 6565,
      "Ġthank": 6566,
      "ĠJesus": 6567,
      "Ġtechnical": 6568,
      "Ġincome": 6569,
      "swe": 6570,
      "ĠAtt": 6571,
      "friend": 6572,
      "ĠTim": 6573,
      "ogenic": 6574,
      "gia": 6575,
      "uous": 6576,
      "Ġteeth": 6577,
      "ĠYear": 6578,
      "Ġcommission": 6579,
      "Ġprimarily": 6580,
      "hens": 6581,
      "anning": 6582,
      "Ġinterpret": 6583,
      "ĠBoard": 6584,
      "SS": 6585,
      "Ġexamination": 6586,
      "Ġviolence": 6587,
      "iences": 6588,
      "Ġthoughts": 6589,
      "ĠDou": 6590,
      "Ġpurchase": 6591,
      "Ġgall": 6592,
      "Ġplanet": 6593,
      "ĠFurthermore": 6594,
      "Ġefficiency": 6595,
      "Ġtruly": 6596,
      "Ġpartner": 6597,
      "run": 6598,
      "Ġclient": 6599,
      "Ġfold": 6600,
      "Ġfocused": 6601,
      "ĠHy": 6602,
      "ivered": 6603,
      "arly": 6604,
      "ĠAngeles": 6605,
      "orney": 6606,
      "Ġartery": 6607,
      "eper": 6608,
      "Ġhandle": 6609,
      "Ġancient": 6610,
      "}$-": 6611,
      "Ġmine": 6612,
      "grams": 6613,
      "Ġenemy": 6614,
      "Ġdescription": 6615,
      "Ġchanging": 6616,
      "ournal": 6617,
      "Ġunivers": 6618,
      "Ġsilver": 6619,
      "Ġacids": 6620,
      "ugg": 6621,
      "_\\": 6622,
      "enger": 6623,
      "ups": 6624,
      "Ġgest": 6625,
      "this": 6626,
      "Ġbudget": 6627,
      "---\"": 6628,
      "stream": 6629,
      "oking": 6630,
      "Ġempty": 6631,
      "Ġunable": 6632,
      "inte": 6633,
      "Ġcomposition": 6634,
      "Ġinform": 6635,
      "Ġwilling": 6636,
      "cm": 6637,
      "Ġcurve": 6638,
      "ĠVer": 6639,
      "iana": 6640,
      "ĠWho": 6641,
      "Ġcoffee": 6642,
      "Ġweather": 6643,
      "Te": 6644,
      "Ġflex": 6645,
      "MC": 6646,
      "Ġviews": 6647,
      "Ġduration": 6648,
      "Ġsodium": 6649,
      "qquad": 6650,
      "Ġtumors": 6651,
      "enth": 6652,
      "Ġnotes": 6653,
      "neq": 6654,
      "ulatory": 6655,
      "Ġscored": 6656,
      "Ġhotel": 6657,
      "Ġsole": 6658,
      "PC": 6659,
      "Ġtroops": 6660,
      "Ġdoses": 6661,
      "Ġpictures": 6662,
      "ompl": 6663,
      "Ġepid": 6664,
      "Ġadvert": 6665,
      "Ġdebut": 6666,
      "Ġprocedures": 6667,
      "Ġcategory": 6668,
      "det": 6669,
      "Ġchick": 6670,
      "Ġclot": 6671,
      "rip": 6672,
      "oes": 6673,
      "Ġwidely": 6674,
      "Des": 6675,
      "Ġfamiliar": 6676,
      "Ġaudience": 6677,
      "Ġdetailed": 6678,
      "ĠHot": 6679,
      "Ġowner": 6680,
      "ĠAcademy": 6681,
      "ĠBas": 6682,
      "Ġtall": 6683,
      "Ġasking": 6684,
      "ĠLove": 6685,
      "._": 6686,
      "Ġcommunities": 6687,
      "Ġworry": 6688,
      "Ġremind": 6689,
      "Ġplanned": 6690,
      "nam": 6691,
      "ĠGar": 6692,
      "Ġunless": 6693,
      "Ġsounds": 6694,
      "imately": 6695,
      "ducation": 6696,
      "ifications": 6697,
      "Ġoral": 6698,
      "ĠPenn": 6699,
      "Ġcrime": 6700,
      "Ġdivided": 6701,
      "ĠMoreover": 6702,
      "inger": 6703,
      "Ġrain": 6704,
      "Ġdistingu": 6705,
      "Ġrapidly": 6706,
      "Ġvo": 6707,
      "Ġfer": 6708,
      "Ġfeatured": 6709,
      "ĠPublic": 6710,
      "Ġtelling": 6711,
      "ĠItaly": 6712,
      "Ġlaunched": 6713,
      "bre": 6714,
      "Ġlit": 6715,
      "Ġhappens": 6716,
      "\\,\\": 6717,
      "Ġideal": 6718,
      "IM": 6719,
      "atre": 6720,
      "real": 6721,
      "icious": 6722,
      "Ġtells": 6723,
      "Ġobvious": 6724,
      "Ġboys": 6725,
      "Ġjobs": 6726,
      "kins": 6727,
      "irector": 6728,
      "illy": 6729,
      "Ġlibrary": 6730,
      "Ġhormone": 6731,
      "istor": 6732,
      "Im": 6733,
      "Ġphoto": 6734,
      "Americ": 6735,
      "ĠEr": 6736,
      "Ġissued": 6737,
      "asty": 6738,
      "pass": 6739,
      "Ġsouthern": 6740,
      "ophy": 6741,
      "Ġperman": 6742,
      "ĠTwitter": 6743,
      "Ġske": 6744,
      "Ġrepresentation": 6745,
      "Ġsale": 6746,
      "...\"": 6747,
      "Ġhero": 6748,
      "Ġhybrid": 6749,
      "ori": 6750,
      "Ġdesk": 6751,
      "Ġshift": 6752,
      "ĠProv": 6753,
      "eding": 6754,
      "}}$,": 6755,
      "<\\": 6756,
      "Ġpulmonary": 6757,
      "arian": 6758,
      "Ġturning": 6759,
      "Ġrevers": 6760,
      "Ġdependent": 6761,
      "ĠThursday": 6762,
      "Ġdiseases": 6763,
      "ĠGr": 6764,
      "azz": 6765,
      "oro": 6766,
      "scale": 6767,
      "ĠDev": 6768,
      "ĠProof": 6769,
      "isters": 6770,
      "Ġvoc": 6771,
      "Ġremove": 6772,
      "Ġvolunte": 6773,
      "Ġpages": 6774,
      "ivation": 6775,
      "Ġeld": 6776,
      "ochemical": 6777,
      "ĠVirginia": 6778,
      "itionally": 6779,
      "gypt": 6780,
      "aph": 6781,
      "Ġopposite": 6782,
      "ĠFinally": 6783,
      "ĠInternet": 6784,
      "ials": 6785,
      "present": 6786,
      "Ġinner": 6787,
      "ĠChristmas": 6788,
      "ĠTre": 6789,
      "________": 6790,
      "Ġphotos": 6791,
      "ishop": 6792,
      "Ġprospect": 6793,
      "ĠAtlant": 6794,
      "Ġ1995": 6795,
      "ĠLand": 6796,
      "pet": 6797,
      ")}$": 6798,
      "Ġ34": 6799,
      "ĠPolice": 6800,
      "ĠAnother": 6801,
      "Ġrecording": 6802,
      "ĠLee": 6803,
      "Ġoccasion": 6804,
      "Ġships": 6805,
      "Ġsched": 6806,
      "iverse": 6807,
      "atus": 6808,
      "Ġprices": 6809,
      "Ġreplied": 6810,
      "Ġbiggest": 6811,
      "Ġstrain": 6812,
      "ĠWednesday": 6813,
      "More": 6814,
      "Ġguys": 6815,
      "Ġtot": 6816,
      "ipal": 6817,
      "UR": 6818,
      "Ġconj": 6819,
      "ĠPan": 6820,
      "Ġadvance": 6821,
      "ĠLife": 6822,
      "Ġpartial": 6823,
      "size": 6824,
      "Ġcharges": 6825,
      "Ġclimate": 6826,
      "Ġsed": 6827,
      "ĠNote": 6828,
      "Ġgreatest": 6829,
      "Ġhomes": 6830,
      "Ġrib": 6831,
      "Ġnearby": 6832,
      "Ġswitch": 6833,
      "Ġcarbon": 6834,
      "Ġimprovement": 6835,
      "uzz": 6836,
      "Ġsky": 6837,
      "ensus": 6838,
      "ĠMexico": 6839,
      "romb": 6840,
      "**": 6841,
      "Ġclients": 6842,
      "Ġstick": 6843,
      "alysis": 6844,
      "Ġplants": 6845,
      "Ġconfirm": 6846,
      "Ġnorthern": 6847,
      "ĠKingdom": 6848,
      "phal": 6849,
      "Ġdraft": 6850,
      "ĠFree": 6851,
      "Ġsplit": 6852,
      "Ġphilos": 6853,
      "hered": 6854,
      "Ġlargely": 6855,
      "Ġrent": 6856,
      "ested": 6857,
      "Ġdelivery": 6858,
      "Ġthanks": 6859,
      "Ġcommit": 6860,
      "Ġapparently": 6861,
      "86": 6862,
      "})^{": 6863,
      "ĠWal": 6864,
      "Ġcontro": 6865,
      "ĠIll": 6866,
      "Ġbron": 6867,
      "ocl": 6868,
      "During": 6869,
      "ĠRepublican": 6870,
      "Ġbroadcast": 6871,
      "terior": 6872,
      "ĠCatholic": 6873,
      "rape": 6874,
      "Ġexcess": 6875,
      "wing": 6876,
      "ĠMuse": 6877,
      "}}=": 6878,
      "idel": 6879,
      "$)": 6880,
      "Ġyes": 6881,
      "ĠIreland": 6882,
      "Ġsurgical": 6883,
      "Ġaccompl": 6884,
      "Ġspectrum": 6885,
      "reatment": 6886,
      "Ġexpansion": 6887,
      "press": 6888,
      "ads": 6889,
      "begins": 6890,
      "Ġbrown": 6891,
      "Ð¾": 6892,
      "ource": 6893,
      "Ġfaster": 6894,
      "Ġprofile": 6895,
      "icon": 6896,
      "scr": 6897,
      "Ġemployed": 6898,
      "Ġstandards": 6899,
      "AF": 6900,
      "inals": 6901,
      "Ġprofession": 6902,
      "Ġhighlight": 6903,
      "raise": 6904,
      "Ġguide": 6905,
      "Ġregional": 6906,
      "ĠEll": 6907,
      "Of": 6908,
      "ĠSov": 6909,
      "olt": 6910,
      "lt": 6911,
      "Ġupt": 6912,
      "Ġwed": 6913,
      "Ġfellow": 6914,
      "olit": 6915,
      "host": 6916,
      "noon": 6917,
      "ĠCard": 6918,
      "ĠJewish": 6919,
      "Ġsoul": 6920,
      "ĠPlease": 6921,
      "Ġindicates": 6922,
      "endscope": 6923,
      "beginscope": 6924,
      "Ġdefinitely": 6925,
      "ails": 6926,
      "Ġbrow": 6927,
      "Ġrepair": 6928,
      "Ġpharm": 6929,
      "Ġaid": 6930,
      "})$.": 6931,
      "Ġsector": 6932,
      "Ġcarcinoma": 6933,
      "ĠCT": 6934,
      "Can": 6935,
      "ricult": 6936,
      "Ġincidence": 6937,
      "aniel": 6938,
      "ether": 6939,
      "Ġserving": 6940,
      "Ĥ¬": 6941,
      "Ġcash": 6942,
      "Ġgrad": 6943,
      "ĠOper": 6944,
      "Ġbatter": 6945,
      "DF": 6946,
      "ayer": 6947,
      "ĠMrs": 6948,
      "Ġformat": 6949,
      "Ġacet": 6950,
      "Ġframework": 6951,
      "Ġsecure": 6952,
      "97": 6953,
      "Ġyounger": 6954,
      "Ġpushed": 6955,
      "Ġsimpl": 6956,
      "ĠIL": 6957,
      "Ġfan": 6958,
      "lie": 6959,
      "Ġmodified": 6960,
      "ilit": 6961,
      "Ġnoticed": 6962,
      "Ġpip": 6963,
      "ĠScot": 6964,
      "Ġnit": 6965,
      "Ġcultures": 6966,
      "Ġ250": 6967,
      "ĠFre": 6968,
      "Ġsick": 6969,
      "ĠForm": 6970,
      "Ġextension": 6971,
      "icted": 6972,
      "Ġenhance": 6973,
      "Ġamounts": 6974,
      "orters": 6975,
      "ĠWork": 6976,
      "ĠRh": 6977,
      "ethod": 6978,
      "icial": 6979,
      "Ġsimult": 6980,
      "Ġconcerns": 6981,
      "Per": 6982,
      "ĠChild": 6983,
      "ono": 6984,
      "ometry": 6985,
      "fe": 6986,
      "Ġ1994": 6987,
      "ĠCam": 6988,
      "olester": 6989,
      "erated": 6990,
      "Ġmic": 6991,
      "Ġsuppl": 6992,
      "Ġowned": 6993,
      "Ġinvestment": 6994,
      "ervative": 6995,
      "Ġfigures": 6996,
      "anth": 6997,
      "ocket": 6998,
      "Ġsnow": 6999,
      "Ġfalse": 7000,
      "Ġsurrounding": 7001,
      "Ġlisten": 7002,
      "ĠPac": 7003,
      "vo": 7004,
      "Ġextensive": 7005,
      "Ġadvice": 7006,
      "Ġsuitable": 7007,
      "Ġwinter": 7008,
      "phosph": 7009,
      "Ġpercentage": 7010,
      "Ġyouth": 7011,
      "ĠDar": 7012,
      ")+": 7013,
      "sl": 7014,
      "vals": 7015,
      "Ġmarg": 7016,
      "Ġcircumst": 7017,
      "Ġforget": 7018,
      "ĠJeff": 7019,
      "Ġkilling": 7020,
      "outs": 7021,
      "Ġadults": 7022,
      "ĠProt": 7023,
      "itable": 7024,
      "Ġexclus": 7025,
      "Ġwear": 7026,
      "Ind": 7027,
      "TS": 7028,
      "Ġinteractions": 7029,
      "sin": 7030,
      "Ġdangerous": 7031,
      "Ġprost": 7032,
      "Ġverte": 7033,
      "93": 7034,
      "rium": 7035,
      "ĠEnd": 7036,
      "Ġauthority": 7037,
      "Ġconstructed": 7038,
      "ĠJones": 7039,
      "Ġenvironmental": 7040,
      "adium": 7041,
      "rank": 7042,
      "iro": 7043,
      "Ġdepending": 7044,
      "Ġhistorical": 7045,
      "Ġposted": 7046,
      "ĠJohnson": 7047,
      "Ġdecide": 7048,
      "Ġventricular": 7049,
      "ivated": 7050,
      "Ġconversation": 7051,
      "pired": 7052,
      "Ġdefic": 7053,
      "ching": 7054,
      "Ġbomb": 7055,
      "Ġfacilities": 7056,
      "Ġ1960": 7057,
      "Ġ(\"": 7058,
      "Ġfundament": 7059,
      "Ġradiation": 7060,
      "Ġspeaking": 7061,
      "Ġends": 7062,
      "Ġfuel": 7063,
      "Ġcharacterized": 7064,
      "Ġjudge": 7065,
      "Ġsurprise": 7066,
      "Ġconcern": 7067,
      "Ġsecretion": 7068,
      "Ġapproaches": 7069,
      "Ġdecades": 7070,
      "ĠHuman": 7071,
      "Ġhelping": 7072,
      "Ġtracks": 7073,
      "Ġsuggesting": 7074,
      "mosp": 7075,
      "Mr": 7076,
      "Ġeditor": 7077,
      "ĠSuch": 7078,
      "Ġdocuments": 7079,
      "she": 7080,
      "Ġturns": 7081,
      "Ġthresh": 7082,
      "Ġimmig": 7083,
      "Ã¢": 7084,
      "Ġembed": 7085,
      "Ġafford": 7086,
      "iner": 7087,
      "inating": 7088,
      "Ġrear": 7089,
      "ante": 7090,
      "iva": 7091,
      "kes": 7092,
      "Ġhat": 7093,
      "Ar": 7094,
      "Ġtasks": 7095,
      "section": 7096,
      "acent": 7097,
      "Ġassigned": 7098,
      "Ġpromin": 7099,
      "Her": 7100,
      "ĠPM": 7101,
      "ĠHa": 7102,
      "ĠEgypt": 7103,
      "ĠJac": 7104,
      "Ġdepends": 7105,
      "mathscr": 7106,
      "ĠÎ": 7107,
      "otype": 7108,
      "ilation": 7109,
      "Ġchromos": 7110,
      "life": 7111,
      "ĠFoot": 7112,
      "Ġagency": 7113,
      "Ġperipheral": 7114,
      "Ġattribut": 7115,
      "gence": 7116,
      "Ġsucceed": 7117,
      "Ġvelocity": 7118,
      "ĠInstead": 7119,
      "ĠWeb": 7120,
      "Ã¨": 7121,
      "Ġamazing": 7122,
      "ĠOpen": 7123,
      "ĠSenate": 7124,
      "OP": 7125,
      "www": 7126,
      "Ġgang": 7127,
      "Ġcrowd": 7128,
      "Ġconclude": 7129,
      "soft": 7130,
      "ĠFoundation": 7131,
      "Ġinvolving": 7132,
      "Ġthousand": 7133,
      "tenance": 7134,
      "Ġfant": 7135,
      "Ġunderstood": 7136,
      "cluding": 7137,
      "Ġpassing": 7138,
      "Ġwearing": 7139,
      "\\\\{\\": 7140,
      "Ġrelationships": 7141,
      "94": 7142,
      "pers": 7143,
      "quar": 7144,
      "Ġrecognition": 7145,
      "Ġtoler": 7146,
      "Ġhonor": 7147,
      "Ġalive": 7148,
      "xture": 7149,
      "HC": 7150,
      "Ġauthorities": 7151,
      "Ġimpossible": 7152,
      "Ġconsidering": 7153,
      "Ġpy": 7154,
      "Ġstarts": 7155,
      "ema": 7156,
      "Ġmes": 7157,
      "Or": 7158,
      "ĠBritain": 7159,
      "Ġstages": 7160,
      "ĠAM": 7161,
      "Ġthr": 7162,
      "Ġuniversity": 7163,
      "Ġinnov": 7164,
      "owed": 7165,
      "Ġ75": 7166,
      "Ġscript": 7167,
      "uten": 7168,
      "ĠTop": 7169,
      "Ġshel": 7170,
      "icul": 7171,
      "Ġaccurate": 7172,
      "oston": 7173,
      "Ġmaintained": 7174,
      "uce": 7175,
      "Ġ@": 7176,
      "renal": 7177,
      "acet": 7178,
      "Ġantagon": 7179,
      "Ġcommonly": 7180,
      "Ġoffering": 7181,
      "Ġnodes": 7182,
      "Ġspat": 7183,
      "Ġtissues": 7184,
      "Ðµ": 7185,
      "Ġca": 7186,
      "dule": 7187,
      "ĠQueen": 7188,
      "Sc": 7189,
      "Ġstudio": 7190,
      "Ġhouses": 7191,
      "Ġbusinesses": 7192,
      "ifer": 7193,
      "ĠJoseph": 7194,
      "Ġassist": 7195,
      "Ġyellow": 7196,
      "Ġstepped": 7197,
      "Ġadmitted": 7198,
      "bi": 7199,
      "Ġconven": 7200,
      "treated": 7201,
      "Ġchannels": 7202,
      "bal": 7203,
      "onia": 7204,
      "ĠMaybe": 7205,
      "}^{+": 7206,
      "Ġacting": 7207,
      "neg": 7208,
      "ĠValley": 7209,
      "iÃ¹": 7210,
      "Ġescape": 7211,
      "Ġwarn": 7212,
      "iples": 7213,
      "FF": 7214,
      "Ġwine": 7215,
      "riv": 7216,
      "Ġidentical": 7217,
      "87": 7218,
      "ĠMuseum": 7219,
      "Ġath": 7220,
      "oured": 7221,
      "Ġjump": 7222,
      "ĠUN": 7223,
      "Ġsalt": 7224,
      "Ġster": 7225,
      "Ġgro": 7226,
      "Ġexecutive": 7227,
      "Ġoptimal": 7228,
      "Ġalleged": 7229,
      "Ġorganizations": 7230,
      "Ġheter": 7231,
      "Ġdys": 7232,
      "}&": 7233,
      "ĠWhe": 7234,
      "ĠPak": 7235,
      "ĠConn": 7236,
      "vin": 7237,
      "Ġassessment": 7238,
      "omatic": 7239,
      "Ġsharp": 7240,
      "Ġbought": 7241,
      "Ġteaching": 7242,
      "Ġgrown": 7243,
      "Ġflo": 7244,
      "ila": 7245,
      "ĠRa": 7246,
      "rh": 7247,
      "{(}\\": 7248,
      "Ġconfidence": 7249,
      "ĠCP": 7250,
      "Ġcarefully": 7251,
      "Ġarrang": 7252,
      "Ġmicrosc": 7253,
      "onym": 7254,
      "case": 7255,
      "Ġdrawn": 7256,
      "Ġbat": 7257,
      "Ġboundary": 7258,
      "Ġleadership": 7259,
      "Ġhors": 7260,
      "Ġcellular": 7261,
      "Ġmetabolism": 7262,
      "Ġanalys": 7263,
      "tic": 7264,
      "fraid": 7265,
      "Ġunus": 7266,
      "ĠMike": 7267,
      "orough": 7268,
      "Ġdatab": 7269,
      "chem": 7270,
      "aven": 7271,
      "Ġchlor": 7272,
      "pan": 7273,
      "Ġdecay": 7274,
      "Ġimmune": 7275,
      "ĠCy": 7276,
      "SH": 7277,
      "Ġbatt": 7278,
      "Ġequations": 7279,
      "Ġmyocard": 7280,
      "spl": 7281,
      "umped": 7282,
      "ogue": 7283,
      "ĠTem": 7284,
      "001": 7285,
      "ĠWhere": 7286,
      "Ġ1992": 7287,
      "Ġafternoon": 7288,
      "Ġhal": 7289,
      "ĠSup": 7290,
      "ĠBlue": 7291,
      "Psi": 7292,
      "Ġclassical": 7293,
      "Ġpolicies": 7294,
      "Ġacquired": 7295,
      "Ġcontribution": 7296,
      "Ġexplan": 7297,
      "Ġemergency": 7298,
      "Ġpregnancy": 7299,
      "non": 7300,
      "Ġpersons": 7301,
      "Ġputting": 7302,
      "rehens": 7303,
      "razil": 7304,
      "Ġ}": 7305,
      "Ġscientific": 7306,
      "Ġcoronary": 7307,
      "Ġasym": 7308,
      "Ġattended": 7309,
      "antic": 7310,
      "Ġwire": 7311,
      "Ġcomposed": 7312,
      "stim": 7313,
      "Ġweekend": 7314,
      "swered": 7315,
      "Ġmuc": 7316,
      "plant": 7317,
      "Ġcryst": 7318,
      "EP": 7319,
      "orb": 7320,
      "Ġacknow": 7321,
      "Ġcarrying": 7322,
      "define": 7323,
      "ĠJon": 7324,
      "Gen": 7325,
      "cence": 7326,
      "Ġ300": 7327,
      "Ġdop": 7328,
      "HT": 7329,
      "Ġenhanced": 7330,
      "ĠWindows": 7331,
      "Ġaccel": 7332,
      "Ġintelligence": 7333,
      "Ġbegins": 7334,
      "BI": 7335,
      "ĠDespite": 7336,
      "ĠCr": 7337,
      "heast": 7338,
      "FC": 7339,
      "}}}": 7340,
      "Ġsorry": 7341,
      "Ġwealth": 7342,
      "Ġcultural": 7343,
      "âĢĿ,": 7344,
      "Ġcriminal": 7345,
      "obs": 7346,
      "obe": 7347,
      "roud": 7348,
      "Ġmarketing": 7349,
      "Ġtrail": 7350,
      "Ġfill": 7351,
      "Ġstom": 7352,
      "Ġdecisions": 7353,
      "Ġtag": 7354,
      "Ġsuffered": 7355,
      "Ġori": 7356,
      "ĠKn": 7357,
      "Ġlies": 7358,
      "everal": 7359,
      "TV": 7360,
      "Ġestate": 7361,
      "aret": 7362,
      "oxy": 7363,
      "ptic": 7364,
      "Ste": 7365,
      "Ġanswered": 7366,
      "Ġdedicated": 7367,
      "Ġcandidates": 7368,
      "Ġnegot": 7369,
      "Ġgrav": 7370,
      "Ġassign": 7371,
      "Ġfly": 7372,
      "Ġimmediate": 7373,
      "ĠSwed": 7374,
      "Ġassumed": 7375,
      "Ġpurposes": 7376,
      "Ġcards": 7377,
      "Ġtrib": 7378,
      "atural": 7379,
      "ĠEnter": 7380,
      "abs": 7381,
      "mond": 7382,
      "Ġserver": 7383,
      "ĠmRNA": 7384,
      "ĠDemocratic": 7385,
      "Ġsport": 7386,
      "anol": 7387,
      "]\\": 7388,
      "Ġdesire": 7389,
      "ĠEngine": 7390,
      "Ġfab": 7391,
      "ĠYoung": 7392,
      "ĠâĪ": 7393,
      "pes": 7394,
      "alls": 7395,
      "Ġmagazine": 7396,
      "ba": 7397,
      "Ġmanufacture": 7398,
      "ĠLo": 7399,
      "ĠTour": 7400,
      "iral": 7401,
      "ĠSocial": 7402,
      "bled": 7403,
      "Ġstared": 7404,
      "Ġfinger": 7405,
      "Ġsuccessfully": 7406,
      "Ġsul": 7407,
      "III": 7408,
      "ĠBow": 7409,
      "you": 7410,
      "ĠZeal": 7411,
      "Ġmamm": 7412,
      "Ġchromat": 7413,
      "ĠWater": 7414,
      "}\\\\\\": 7415,
      "ls": 7416,
      "Ġtone": 7417,
      "Ġresident": 7418,
      "Ġacts": 7419,
      "Ġroot": 7420,
      "asp": 7421,
      "Ġdestroyed": 7422,
      "ipping": 7423,
      "ĠJackson": 7424,
      "Ġdust": 7425,
      "Ġseek": 7426,
      "endo": 7427,
      "Ġconflict": 7428,
      "Ġincred": 7429,
      "urally": 7430,
      "Ġ1991": 7431,
      "ĠExper": 7432,
      "Ġentertain": 7433,
      "Ġuns": 7434,
      "Ġdram": 7435,
      "Ġzone": 7436,
      "ĠLi": 7437,
      "Ġsteel": 7438,
      "essor": 7439,
      "Ġaveva": 7440,
      "Ġoutcome": 7441,
      "oglob": 7442,
      "Ġgrab": 7443,
      "ĠRom": 7444,
      "Ġmir": 7445,
      "Ġstring": 7446,
      "Ġrig": 7447,
      "Ġangle": 7448,
      "law": 7449,
      "ĠData": 7450,
      "Ġcounty": 7451,
      "Ġrespir": 7452,
      "rapeut": 7453,
      "Ġride": 7454,
      "Res": 7455,
      "otrop": 7456,
      "Ġsurprised": 7457,
      "Ġprompt": 7458,
      "Ġfurn": 7459,
      "TC": 7460,
      "Am": 7461,
      "Ġboat": 7462,
      "Ġneighborhood": 7463,
      "Ġham": 7464,
      "Ġafraid": 7465,
      "dist": 7466,
      "ĠLight": 7467,
      "Ġeffectively": 7468,
      "onent": 7469,
      "ipl": 7470,
      "ĠRam": 7471,
      "otyp": 7472,
      "jo": 7473,
      "92": 7474,
      "istent": 7475,
      "Ġexplore": 7476,
      "ĠBra": 7477,
      "ĠSouthern": 7478,
      "Ġcong": 7479,
      "idents": 7480,
      "OL": 7481,
      "Ġletters": 7482,
      "Ġbeside": 7483,
      "ĠVan": 7484,
      "ĠSoviet": 7485,
      "ican": 7486,
      "ĠMiddle": 7487,
      "Ġforth": 7488,
      "Ġopportunities": 7489,
      "Ġevaluate": 7490,
      "Ġresponsibility": 7491,
      "elli": 7492,
      "ampion": 7493,
      "Ġ1993": 7494,
      "contin": 7495,
      "ĠpiÃ¹": 7496,
      "}}$.": 7497,
      "ĠFire": 7498,
      "Ġ42": 7499,
      "label": 7500,
      "Ġminim": 7501,
      "pton": 7502,
      "bu": 7503,
      "Ġsuperior": 7504,
      "ĠNorthern": 7505,
      "ĠDirector": 7506,
      "GE": 7507,
      "Ġpaint": 7508,
      "Ġ1989": 7509,
      "Are": 7510,
      "}\\,\\": 7511,
      "84": 7512,
      "bound": 7513,
      "Ġlocations": 7514,
      "weet": 7515,
      "==": 7516,
      "Ġpolar": 7517,
      "Ġspaces": 7518,
      "Ġknowing": 7519,
      "Ġmilk": 7520,
      "Ġlinked": 7521,
      "Ġimplies": 7522,
      "uable": 7523,
      "idation": 7524,
      "ogenesis": 7525,
      "utation": 7526,
      "Ġarrested": 7527,
      "ĠZealand": 7528,
      "Ġaver": 7529,
      "amente": 7530,
      "Ġcreation": 7531,
      "ĠCross": 7532,
      "Ġanx": 7533,
      "Ġjourney": 7534,
      "Ġnurs": 7535,
      "Ġconclusion": 7536,
      "Ġnewly": 7537,
      "|_{": 7538,
      "elly": 7539,
      "ĠDan": 7540,
      "Ġraise": 7541,
      "estinal": 7542,
      "Ġsumm": 7543,
      "ION": 7544,
      "Ġinvestigate": 7545,
      "anche": 7546,
      "Ġsulf": 7547,
      "Ġban": 7548,
      "Ġcomplement": 7549,
      "ĠTeam": 7550,
      "Other": 7551,
      "Ġho": 7552,
      "Ġmaps": 7553,
      "Ġlayers": 7554,
      "owing": 7555,
      "Ġstrange": 7556,
      "ĠCaptain": 7557,
      "Ġgenerate": 7558,
      "ĠProgram": 7559,
      "pgf": 7560,
      "irus": 7561,
      "then": 7562,
      "Ġgenetic": 7563,
      "\")": 7564,
      "ĠBern": 7565,
      "Ġreplic": 7566,
      "ĠPower": 7567,
      "Ġprotocol": 7568,
      "ĠYes": 7569,
      "Ġaggreg": 7570,
      "ĠBoston": 7571,
      "tes": 7572,
      "Ġhung": 7573,
      "ĠMaster": 7574,
      "Ġpairs": 7575,
      "stone": 7576,
      "Ġpreparation": 7577,
      "Ġaband": 7578,
      "Ġroof": 7579,
      "83": 7580,
      "ML": 7581,
      "ĠTest": 7582,
      "Ġscream": 7583,
      "Ġreform": 7584,
      "ologically": 7585,
      "ĠRail": 7586,
      "ĠFar": 7587,
      "mann": 7588,
      "phant": 7589,
      "ĠDun": 7590,
      "ĠEducation": 7591,
      "ĠColumb": 7592,
      "Ġclassification": 7593,
      "Ġdataset": 7594,
      "stract": 7595,
      "ĠSP": 7596,
      "Ġatmosp": 7597,
      "Ġminimal": 7598,
      "rous": 7599,
      "Ġlimits": 7600,
      "ells": 7601,
      "Ġcausing": 7602,
      "iology": 7603,
      "})$,": 7604,
      "rection": 7605,
      "Ġconventional": 7606,
      "Ġformula": 7607,
      "organ": 7608,
      "Ġgather": 7609,
      "Ġsan": 7610,
      "Ġfunds": 7611,
      "Ġwaste": 7612,
      "ructions": 7613,
      "fit": 7614,
      "Ġindicating": 7615,
      "Ġadministered": 7616,
      "Ġgap": 7617,
      "zing": 7618,
      "Ġincub": 7619,
      "equiv": 7620,
      "agg": 7621,
      "rong": 7622,
      "Ġmanage": 7623,
      "ĠAp": 7624,
      "CP": 7625,
      "ĠMen": 7626,
      "Ġwestern": 7627,
      "Ð°": 7628,
      "}}{{": 7629,
      "oprotein": 7630,
      "Ġvariation": 7631,
      "dy": 7632,
      "Ġregulation": 7633,
      "AA": 7634,
      "Ġuptake": 7635,
      "Ġawarded": 7636,
      "ĠSpe": 7637,
      "Ġdiscover": 7638,
      "ĠAcc": 7639,
      "oly": 7640,
      "Ġdance": 7641,
      "Ġgon": 7642,
      "Ġsession": 7643,
      "Ġmatches": 7644,
      ".(": 7645,
      "Ġcrisis": 7646,
      "ko": 7647,
      "ĠPers": 7648,
      "Ġpractical": 7649,
      "Ġmusical": 7650,
      "Ġcommitted": 7651,
      "Ġinterests": 7652,
      "Ġsquad": 7653,
      "Ġdelivered": 7654,
      "Ġindustrial": 7655,
      "usc": 7656,
      "rison": 7657,
      "Ġinjuries": 7658,
      "Ġcorrelated": 7659,
      "ova": 7660,
      "Ġcompare": 7661,
      "Ġpolitics": 7662,
      "emporary": 7663,
      "edia": 7664,
      "Ġplastic": 7665,
      "inates": 7666,
      "ĠClinton": 7667,
      "Ġmalign": 7668,
      "Ġintensity": 7669,
      "oids": 7670,
      "Ġrul": 7671,
      "Ġdinner": 7672,
      "Ġcoverage": 7673,
      "Ġreviews": 7674,
      "ĠWilliams": 7675,
      "mat": 7676,
      "TH": 7677,
      "Ġlosing": 7678,
      "Ġdescribes": 7679,
      "inked": 7680,
      "Ġ>": 7681,
      "center": 7682,
      "Ġcontrovers": 7683,
      "ariant": 7684,
      "Ġflav": 7685,
      "Ġpowers": 7686,
      "Ġlaid": 7687,
      "Ġvascular": 7688,
      "Ġvehicles": 7689,
      "rible": 7690,
      "Ġlock": 7691,
      "ĊĊĊĊ": 7692,
      "herent": 7693,
      "Ġpron": 7694,
      "\\\\}$": 7695,
      "Ġrefused": 7696,
      "Ġupdate": 7697,
      "Ġaccompan": 7698,
      "otal": 7699,
      "Ġneutral": 7700,
      "}}_{\\": 7701,
      "Ġcro": 7702,
      "Ġdeploy": 7703,
      "adder": 7704,
      "ĠGame": 7705,
      "Ġshooting": 7706,
      "Ġobservation": 7707,
      "ĠConf": 7708,
      "inite": 7709,
      "Ġclothes": 7710,
      "Ġminister": 7711,
      "olesterol": 7712,
      "Ġdiscrim": 7713,
      "aid": 7714,
      "First": 7715,
      "Ġhidden": 7716,
      "Ġlinks": 7717,
      "Ġ1988": 7718,
      "eller": 7719,
      "CE": 7720,
      "Ġsomewhat": 7721,
      "Ġcriteria": 7722,
      "Ġstrict": 7723,
      "ĠFred": 7724,
      "Ġwonderful": 7725,
      "Ġtransmission": 7726,
      "81": 7727,
      "Ġbeneath": 7728,
      "Ġilleg": 7729,
      "Ġnumer": 7730,
      "bul": 7731,
      "Ġhypothesis": 7732,
      "Ġexperiences": 7733,
      "Ġtheore": 7734,
      "Ġsurf": 7735,
      "ĠBrazil": 7736,
      "Ġdrum": 7737,
      "Ġwindows": 7738,
      "Ġdistributed": 7739,
      "ĠLu": 7740,
      "Ġsir": 7741,
      "Me": 7742,
      "RI": 7743,
      "Where": 7744,
      "fill": 7745,
      "91": 7746,
      "Ġversus": 7747,
      "Ġsolo": 7748,
      "Ġactor": 7749,
      "ĠDown": 7750,
      "Ġhence": 7751,
      "Ġhole": 7752,
      "Ġchampionship": 7753,
      "after": 7754,
      "there": 7755,
      "Ġinduction": 7756,
      "textbf": 7757,
      "card": 7758,
      "Ġvul": 7759,
      "Ġrecommended": 7760,
      "Ġreactions": 7761,
      "Ġflood": 7762,
      "DL": 7763,
      "ĠColl": 7764,
      "Ġpref": 7765,
      "ĠGreek": 7766,
      "Ġdimension": 7767,
      "earing": 7768,
      "Ġoperated": 7769,
      "ĠStand": 7770,
      "Ġneu": 7771,
      "Ġmicrograms": 7772,
      "Ġhonest": 7773,
      "ĠLie": 7774,
      "Ġconsec": 7775,
      "Ġgel": 7776,
      "Ġreson": 7777,
      "Ġearned": 7778,
      "Ġmoments": 7779,
      "Ġnervous": 7780,
      "rocy": 7781,
      "orted": 7782,
      "Ġseasons": 7783,
      "Ġmand": 7784,
      "Ġspending": 7785,
      "Ġpoet": 7786,
      "TA": 7787,
      "Ġaer": 7788,
      "Ġartists": 7789,
      "Ġunion": 7790,
      "zer": 7791,
      "anna": 7792,
      "Ġcircumstances": 7793,
      "mediate": 7794,
      "Com": 7795,
      "space": 7796,
      "Ġcomfortable": 7797,
      "Ġworst": 7798,
      "Ġju": 7799,
      "Ġfacility": 7800,
      "bel": 7801,
      "quare": 7802,
      "Ġdrag": 7803,
      "Ġgate": 7804,
      "Ġtaught": 7805,
      "Ġheads": 7806,
      "ĠHon": 7807,
      "ĠCarolina": 7808,
      "ortic": 7809,
      "olo": 7810,
      "Ġ---": 7811,
      "Ġyards": 7812,
      "Ġlanguages": 7813,
      "Ġassault": 7814,
      "Ġmaintenance": 7815,
      "Your": 7816,
      "App": 7817,
      "ogram": 7818,
      "Ġswim": 7819,
      "-(": 7820,
      "Ġembry": 7821,
      "ĠProject": 7822,
      "ĠChris": 7823,
      "Ġdoors": 7824,
      "Ġ1987": 7825,
      "Ġrelief": 7826,
      "iture": 7827,
      "aved": 7828,
      "Ġearn": 7829,
      "ĠBefore": 7830,
      "two": 7831,
      "Ġsemi": 7832,
      "unior": 7833,
      "Ġveget": 7834,
      "Ġmountain": 7835,
      "ĠJournal": 7836,
      "Ġstruck": 7837,
      "Ġstructural": 7838,
      "Ġarchitecture": 7839,
      "igation": 7840,
      "uct": 7841,
      "Ġresc": 7842,
      "ĠBrad": 7843,
      "wa": 7844,
      "ĠTr": 7845,
      "uan": 7846,
      "Ġbeam": 7847,
      "ãģ": 7848,
      "ducing": 7849,
      "Ġdil": 7850,
      "stic": 7851,
      "Ġperiods": 7852,
      "ali": 7853,
      "inson": 7854,
      "Ġarticles": 7855,
      "Ġdrew": 7856,
      "rative": 7857,
      "Ġbiological": 7858,
      "ĠId": 7859,
      "irk": 7860,
      "Ġchallenges": 7861,
      "Ġcouncil": 7862,
      "ĠJustice": 7863,
      "ĠSecurity": 7864,
      "ersey": 7865,
      "Ġdepression": 7866,
      "Ġ1986": 7867,
      "ĠCarl": 7868,
      "Ġfro": 7869,
      "Ġbear": 7870,
      "ĠAD": 7871,
      "ynom": 7872,
      "Ġhousing": 7873,
      "Ġbasket": 7874,
      "fast": 7875,
      "apse": 7876,
      "ilding": 7877,
      "Ġcraft": 7878,
      "Ġtransformation": 7879,
      "Ġfaces": 7880,
      "pered": 7881,
      "Ġfunding": 7882,
      "Ġaccounts": 7883,
      "ĠChief": 7884,
      "ograp": 7885,
      "named": 7886,
      "ĠâĢ¦": 7887,
      "Ġstrike": 7888,
      "Ġinvolvement": 7889,
      "ĠSpain": 7890,
      "ĠShow": 7891,
      "Ġtaste": 7892,
      "Ġsubsequently": 7893,
      "Ġtens": 7894,
      "abeth": 7895,
      "Note": 7896,
      "Ġhundreds": 7897,
      "Ġsuo": 7898,
      "ela": 7899,
      "inition": 7900,
      "ĠHamilton": 7901,
      "Ġsuspect": 7902,
      "ĠLab": 7903,
      "Ġcoal": 7904,
      "ĠHor": 7905,
      "olars": 7906,
      "ĠKorea": 7907,
      "Ġadvent": 7908,
      "Ġsignals": 7909,
      "rage": 7910,
      "ĠGi": 7911,
      "Ġvast": 7912,
      "Ġobjective": 7913,
      "Ġdenote": 7914,
      "ĠWay": 7915,
      "Ġduty": 7916,
      "definecolor": 7917,
      "aria": 7918,
      "Ġaged": 7919,
      "82": 7920,
      "ĠPrince": 7921,
      "otherapy": 7922,
      "ti": 7923,
      "such": 7924,
      "umes": 7925,
      "Rec": 7926,
      "Ġpurified": 7927,
      "Ġwet": 7928,
      "ĠProposition": 7929,
      "ifies": 7930,
      "atric": 7931,
      "ĠIrish": 7932,
      "ĠSaint": 7933,
      "ĠHistory": 7934,
      "ĠLine": 7935,
      "John": 7936,
      "Ġorganized": 7937,
      "Ġadopted": 7938,
      "eness": 7939,
      "Ġthroat": 7940,
      "Ġanalyzed": 7941,
      "Ġweapon": 7942,
      "ogenous": 7943,
      "linear": 7944,
      "Ġpackage": 7945,
      "Ġsupporting": 7946,
      "ughed": 7947,
      "2018": 7948,
      "annel": 7949,
      "imp": 7950,
      "Ġinterval": 7951,
      "Ġsettled": 7952,
      "aylor": 7953,
      "Ġgarden": 7954,
      "Ġfilter": 7955,
      "Co": 7956,
      "Ġmagic": 7957,
      "ĠSimilar": 7958,
      "ellar": 7959,
      "ĠRecords": 7960,
      "ĠNavy": 7961,
      "ĠAri": 7962,
      "Ġfifth": 7963,
      "low": 7964,
      "group": 7965,
      "Ġcaptured": 7966,
      "Ġbringing": 7967,
      "rapeutic": 7968,
      "uma": 7969,
      "ocated": 7970,
      "Ġattempts": 7971,
      "ĠDevelopment": 7972,
      "ĠHarry": 7973,
      "Ġcm": 7974,
      "Ġeconom": 7975,
      "arks": 7976,
      "care": 7977,
      "rophy": 7978,
      "Ġshout": 7979,
      "Ġremoval": 7980,
      "ĠDom": 7981,
      "Ġlaughed": 7982,
      "Ġrab": 7983,
      "Ġseparated": 7984,
      "ĠSea": 7985,
      "Ġstability": 7986,
      "inking": 7987,
      "writ": 7988,
      "La": 7989,
      "Ġinternet": 7990,
      "Ġblocks": 7991,
      "Ġexpensive": 7992,
      "uing": 7993,
      "ologist": 7994,
      "ĠNY": 7995,
      "asi": 7996,
      "ĠSpecial": 7997,
      "ĠAL": 7998,
      "rav": 7999,
      "oded": 8000,
      "Ġelevated": 8001,
      "Ġbirds": 8002,
      "ĠSi": 8003,
      "erly": 8004,
      "Ġ150": 8005,
      "Ġmissed": 8006,
      "}({\\": 8007,
      "Ġvisible": 8008,
      "ja": 8009,
      "Ġschedule": 8010,
      "ilateral": 8011,
      "Ġhabit": 8012,
      "Ġconsumption": 8013,
      "ĠBack": 8014,
      "Ġexplicit": 8015,
      "oli": 8016,
      "ĠThose": 8017,
      "Ġgift": 8018,
      "ĠLady": 8019,
      "Ġeryth": 8020,
      "Ġcompounds": 8021,
      "ĠGall": 8022,
      "Ġrein": 8023,
      "ĠFrancisco": 8024,
      "ĠAndrew": 8025,
      "Ġmonitoring": 8026,
      "Ġcaptain": 8027,
      "limits": 8028,
      "Ġresearchers": 8029,
      "Ġhorizon": 8030,
      "Ġdepos": 8031,
      "rastructure": 8032,
      "ricted": 8033,
      "Ġgrass": 8034,
      "Ġstomach": 8035,
      "ĠWomen": 8036,
      "onucle": 8037,
      "olve": 8038,
      "'.": 8039,
      "Ġscores": 8040,
      "elve": 8041,
      "ader": 8042,
      "nic": 8043,
      "Ġaside": 8044,
      "etes": 8045,
      "ĠMajor": 8046,
      "ĠRay": 8047,
      "OM": 8048,
      "Ġsignificance": 8049,
      "Ġcapture": 8050,
      "oxide": 8051,
      "Ġdivers": 8052,
      "Ġmuscles": 8053,
      "}|\\": 8054,
      "Ġque": 8055,
      "Ġlights": 8056,
      "Ġexcited": 8057,
      "Ġcoli": 8058,
      "Ġimagine": 8059,
      "lines": 8060,
      "Ġregime": 8061,
      "Ġitem": 8062,
      "Ġdetermination": 8063,
      "Ġ400": 8064,
      "FA": 8065,
      "Ġthreshold": 8066,
      "vi": 8067,
      "Ġreplacement": 8068,
      "Ġmortality": 8069,
      "actic": 8070,
      "Ġjustice": 8071,
      "Ġneural": 8072,
      "ĠSher": 8073,
      "Ġparticle": 8074,
      "Ġpor": 8075,
      "subseteq": 8076,
      "ĠTal": 8077,
      "GB": 8078,
      "ometimes": 8079,
      "Ġbehaviour": 8080,
      "Ġpilot": 8081,
      "Ġedges": 8082,
      "Ġcomplications": 8083,
      "Ġanyway": 8084,
      "Ġedition": 8085,
      "ĠServices": 8086,
      "Who": 8087,
      "anti": 8088,
      "gly": 8089,
      "ĠGuard": 8090,
      "pert": 8091,
      "ĠEp": 8092,
      "Ġrealize": 8093,
      "ĠSupreme": 8094,
      "ĠApple": 8095,
      "Ġsugar": 8096,
      "Ġscal": 8097,
      "Ġ1985": 8098,
      "Ġinfected": 8099,
      "claim": 8100,
      "SC": 8101,
      "Ġhttp": 8102,
      "Ġsinger": 8103,
      "Net": 8104,
      "Ġdynamics": 8105,
      "TP": 8106,
      "}{}{}{}{": 8107,
      "ĠStan": 8108,
      "Ġ1984": 8109,
      "lik": 8110,
      "wan": 8111,
      "Ġtrem": 8112,
      "Ġerrors": 8113,
      "ĠHun": 8114,
      "Ġcharacteristic": 8115,
      "Ġcommittee": 8116,
      "ĠMic": 8117,
      "ylvan": 8118,
      "Table": 8119,
      "ĠEqu": 8120,
      "Ġdeclared": 8121,
      "ĠUs": 8122,
      "Ġshell": 8123,
      "'-": 8124,
      "Ġrooms": 8125,
      "Although": 8126,
      "ĠDam": 8127,
      "Ġfur": 8128,
      "Ġdollars": 8129,
      "ĠFootball": 8130,
      "ĠRod": 8131,
      "inder": 8132,
      "Ġexceed": 8133,
      "ĠLittle": 8134,
      "Ġtiny": 8135,
      "American": 8136,
      "Ġattached": 8137,
      "Ġwidth": 8138,
      "htt": 8139,
      "adel": 8140,
      "Ġpractices": 8141,
      "rolog": 8142,
      "Ġ44": 8143,
      "forcement": 8144,
      "Ġcombat": 8145,
      "Ġglanced": 8146,
      "^\\": 8147,
      "Ġrum": 8148,
      "Ġmatters": 8149,
      "ococ": 8150,
      "Ġsubt": 8151,
      "Another": 8152,
      "iber": 8153,
      "abled": 8154,
      "Ġpotent": 8155,
      "âĢ¢": 8156,
      "Ġspont": 8157,
      "Ġsilence": 8158,
      "ockey": 8159,
      "Ġly": 8160,
      "Ġpredicted": 8161,
      "ĠPacific": 8162,
      "ibilities": 8163,
      "isting": 8164,
      "emble": 8165,
      "ilib": 8166,
      "Ġglyc": 8167,
      "Ġblind": 8168,
      "Ġsentence": 8169,
      "Ġsought": 8170,
      "})=\\": 8171,
      "mia": 8172,
      "Ġnormally": 8173,
      "Ġdisorders": 8174,
      "erted": 8175,
      "Ġdebate": 8176,
      "Ġproperly": 8177,
      "Ġauto": 8178,
      "ĠDie": 8179,
      "ĠMP": 8180,
      "ĠOrder": 8181,
      "Ġholid": 8182,
      "Ġpopulations": 8183,
      "Ġabsolutely": 8184,
      "Ġ65": 8185,
      "Ġillness": 8186,
      "2019": 8187,
      "cers": 8188,
      "Ġdynamic": 8189,
      "Ġversions": 8190,
      "ĠHospital": 8191,
      "Ġkidney": 8192,
      "una": 8193,
      "eping": 8194,
      "hire": 8195,
      "called": 8196,
      "Ġ$-": 8197,
      "En": 8198,
      "Ġmild": 8199,
      "eli": 8200,
      "Ġstations": 8201,
      "Ġnewspaper": 8202,
      "onto": 8203,
      "&-": 8204,
      "Ġlymphocytes": 8205,
      "Ġelectronic": 8206,
      "Ġ39": 8207,
      "ĠAsia": 8208,
      "ĠFederal": 8209,
      "was": 8210,
      "Ġestimates": 8211,
      "ochond": 8212,
      "Ġopposition": 8213,
      "ĠOhio": 8214,
      "isa": 8215,
      "Ġinfections": 8216,
      "Ġdifferential": 8217,
      "ĠSecretary": 8218,
      "Ġinspired": 8219,
      "Ġbutton": 8220,
      "Ġpartially": 8221,
      "Ġcontributions": 8222,
      "Ne": 8223,
      "Ġproud": 8224,
      "cus": 8225,
      "Ġfundamental": 8226,
      "Ġabuse": 8227,
      "Ġmales": 8228,
      "Every": 8229,
      "Ġdecor": 8230,
      "imer": 8231,
      "erman": 8232,
      "Ġsuffering": 8233,
      "izz": 8234,
      "Ġgiant": 8235,
      "Ġstands": 8236,
      "ĠDid": 8237,
      "Ġsli": 8238,
      "Ġliked": 8239,
      "ceived": 8240,
      "mode": 8241,
      "Ġlots": 8242,
      "Ġreaching": 8243,
      "patic": 8244,
      "Ġdomestic": 8245,
      "grade": 8246,
      ")}{": 8247,
      "Ġ55": 8248,
      "Ġultimately": 8249,
      "Ġtotally": 8250,
      "Ġcontribute": 8251,
      "Ġproducing": 8252,
      "chain": 8253,
      "eman": 8254,
      "ĠAh": 8255,
      "Ġpapers": 8256,
      "Ġnose": 8257,
      "Ġkil": 8258,
      "ĠCS": 8259,
      "ĠSign": 8260,
      "word": 8261,
      "Ġweren": 8262,
      "Ġimplementation": 8263,
      "ĠSeries": 8264,
      "Ġglad": 8265,
      "_{-": 8266,
      "EG": 8267,
      "Ġinterface": 8268,
      "RS": 8269,
      "ĠLast": 8270,
      "Ġprincipal": 8271,
      "Ġ64": 8272,
      "Ġmembranes": 8273,
      "Ġsad": 8274,
      "Ġhorses": 8275,
      "Ġeating": 8276,
      "Ġassistance": 8277,
      "gers": 8278,
      "ĠRand": 8279,
      "Ġacademic": 8280,
      "Ġarterial": 8281,
      "ushing": 8282,
      "Ġvacc": 8283,
      "ĠBa": 8284,
      "Ġouter": 8285,
      "Ġmixture": 8286,
      "ĠToday": 8287,
      "ĠHence": 8288,
      "ommod": 8289,
      "Ġepisodes": 8290,
      "Ġuncertainty": 8291,
      "Ġwheel": 8292,
      "Ġiniti": 8293,
      "split": 8294,
      "ĠEdward": 8295,
      "Ġcir": 8296,
      "Pi": 8297,
      "ĠBusiness": 8298,
      "Ġcircuit": 8299,
      "Ġsharing": 8300,
      "olip": 8301,
      "ĠCare": 8302,
      "ailed": 8303,
      "dagger": 8304,
      "ĠBab": 8305,
      "ĠAsh": 8306,
      "km": 8307,
      "Ġheavily": 8308,
      "eared": 8309,
      "Ġprotected": 8310,
      "ghan": 8311,
      "Ġflash": 8312,
      "Ġstreets": 8313,
      "ĠBattle": 8314,
      "cked": 8315,
      "Ġfacilit": 8316,
      "RL": 8317,
      "skip": 8318,
      "Ġarbit": 8319,
      "Ġproducer": 8320,
      "Ġdecade": 8321,
      "param": 8322,
      "Ġloan": 8323,
      "Ġdefeated": 8324,
      "igens": 8325,
      "Ġtheme": 8326,
      "Get": 8327,
      "dec": 8328,
      "Ġ?": 8329,
      "ĠMot": 8330,
      ",-": 8331,
      "ĠOl": 8332,
      "ĠConst": 8333,
      "Ġmad": 8334,
      "ĠmM": 8335,
      "width": 8336,
      "enny": 8337,
      "Ġprominent": 8338,
      "ĠSus": 8339,
      "Ġperforming": 8340,
      "ĠFollowing": 8341,
      "lation": 8342,
      "Ġpreced": 8343,
      "({\\": 8344,
      "ĠAmong": 8345,
      "Ġsevent": 8346,
      "Ġshoulders": 8347,
      "opath": 8348,
      "Ġ1950": 8349,
      "Ġoccas": 8350,
      "Ġsolar": 8351,
      "formance": 8352,
      "Ġtournament": 8353,
      "ĠDa": 8354,
      "Ġfemales": 8355,
      "ador": 8356,
      "Ġsuppose": 8357,
      "Ġpassion": 8358,
      "foot": 8359,
      "ĠPlan": 8360,
      "bury": 8361,
      "Ġintroduce": 8362,
      "Ġsomewhere": 8363,
      "Ġwedding": 8364,
      "ĠMi": 8365,
      "power": 8366,
      "Ġsav": 8367,
      "ogether": 8368,
      "Ġobviously": 8369,
      "Ġdisorder": 8370,
      "ĠDonald": 8371,
      "Ġcord": 8372,
      "Ġunusual": 8373,
      "Ġattempted": 8374,
      "ĠMid": 8375,
      "Ġdiagram": 8376,
      "aka": 8377,
      "Ġexplos": 8378,
      "2017": 8379,
      "Ġdanger": 8380,
      "ishment": 8381,
      "Ġprosec": 8382,
      "cul": 8383,
      "Ġclassic": 8384,
      "Ġtong": 8385,
      "ĠGames": 8386,
      "Ġtract": 8387,
      "izer": 8388,
      "ACT": 8389,
      "athan": 8390,
      "EA": 8391,
      "rants": 8392,
      "Ġsimulation": 8393,
      "ĠFox": 8394,
      "comple": 8395,
      "ĠKent": 8396,
      "enal": 8397,
      "Ġgrade": 8398,
      "Ġmerely": 8399,
      "ĠExt": 8400,
      "Ġinflamm": 8401,
      "ĠID": 8402,
      "Ġlifted": 8403,
      "Ġunderlying": 8404,
      "ĠOF": 8405,
      "Man": 8406,
      "Ġteach": 8407,
      "Ġheaded": 8408,
      "Ġrememb": 8409,
      "Ġprime": 8410,
      "apes": 8411,
      "ĠEliz": 8412,
      "uer": 8413,
      "Ġelectrical": 8414,
      "isp": 8415,
      "Ġing": 8416,
      "Ġcompens": 8417,
      "ĠStephen": 8418,
      "Ġconscious": 8419,
      "Ġpotentially": 8420,
      "ylvania": 8421,
      "Ġcurves": 8422,
      "NS": 8423,
      "Ġresponded": 8424,
      "ĠNight": 8425,
      "Ġseeking": 8426,
      "Ġidentification": 8427,
      "Ġbuff": 8428,
      "ĠColor": 8429,
      "opt": 8430,
      "Ġdual": 8431,
      "Ġdebt": 8432,
      "Ġpermanent": 8433,
      "Ġinteract": 8434,
      "sts": 8435,
      "Ġfrequent": 8436,
      "Ġdatabase": 8437,
      "Ġuncle": 8438,
      "bigg": 8439,
      "Ġprinciple": 8440,
      "aden": 8441,
      "Ġurban": 8442,
      "ĠKen": 8443,
      "ĠKim": 8444,
      "Ġfought": 8445,
      "Ġsteady": 8446,
      "Ġperspective": 8447,
      "Ġroles": 8448,
      "ĠDesign": 8449,
      "ĠLew": 8450,
      "Ġplenty": 8451,
      "Ġowners": 8452,
      "Ġaccompanied": 8453,
      "kl": 8454,
      "cretion": 8455,
      "UT": 8456,
      "ĠNetwork": 8457,
      "ilipp": 8458,
      "Ġgamma": 8459,
      "Ġapproved": 8460,
      "Ġapartment": 8461,
      "Ġstores": 8462,
      "ĠNever": 8463,
      "lements": 8464,
      "Ġmeat": 8465,
      "Ġtransferred": 8466,
      "ĠThough": 8467,
      "bet": 8468,
      "inned": 8469,
      "Ġpeptide": 8470,
      "Ġty": 8471,
      "Ġpseud": 8472,
      "tr": 8473,
      "Ġcolors": 8474,
      "ĠAvenue": 8475,
      "Ġcompos": 8476,
      "Ġloud": 8477,
      "Ġthread": 8478,
      "ĠMS": 8479,
      "Ġpromise": 8480,
      "ansas": 8481,
      "Ġye": 8482,
      "ĠLook": 8483,
      "plate": 8484,
      "ĠSpace": 8485,
      "Ġassessed": 8486,
      "Ġfaced": 8487,
      "Ġalgebra": 8488,
      "Ġreturns": 8489,
      "Ġbands": 8490,
      "enna": 8491,
      "ĠTechnology": 8492,
      "mov": 8493,
      "Ġoblig": 8494,
      "Ġgentle": 8495,
      "Ġprofessor": 8496,
      "Ġstrategies": 8497,
      "Ġoperators": 8498,
      "Ġalongside": 8499,
      "Ġabsolute": 8500,
      "Ġmolecules": 8501,
      "Ġreligion": 8502,
      "ĠCentre": 8503,
      "Ġpromote": 8504,
      "Ġbass": 8505,
      "Ġ95": 8506,
      "acks": 8507,
      "Ġintact": 8508,
      "Go": 8509,
      "map": 8510,
      "Good": 8511,
      "Ġwra": 8512,
      "Ġinjured": 8513,
      "mes": 8514,
      "Ġradical": 8515,
      "thal": 8516,
      "Ġcircle": 8517,
      "Ġcerebral": 8518,
      "Ġlaboratory": 8519,
      "Ġloop": 8520,
      "Ġexperts": 8521,
      "Ġsolve": 8522,
      "Ġmetast": 8523,
      "DNA": 8524,
      "oclonal": 8525,
      "Ġgained": 8526,
      "}{}}": 8527,
      "ĠPrem": 8528,
      "Ġannounce": 8529,
      "Ġ43": 8530,
      "Ġtur": 8531,
      "Ġproportion": 8532,
      "Will": 8533,
      "?âĢĿ": 8534,
      "Ġinstitutions": 8535,
      "idity": 8536,
      "conn": 8537,
      "ĠIl": 8538,
      "ĠConference": 8539,
      "Ġchose": 8540,
      "Ġcholesterol": 8541,
      "Ġaccused": 8542,
      "Ġevil": 8543,
      "Ġrespiratory": 8544,
      "}},\\": 8545,
      ".\\": 8546,
      "ĠCR": 8547,
      "olly": 8548,
      "oom": 8549,
      "vol": 8550,
      "orge": 8551,
      "ĠAmaz": 8552,
      "CR": 8553,
      "Ġgraft": 8554,
      "Ġbench": 8555,
      "Ġadopt": 8556,
      "Ġregistered": 8557,
      "ĠBal": 8558,
      "ĠSa": 8559,
      "Ġcategories": 8560,
      "Ġchamber": 8561,
      "rass": 8562,
      "lers": 8563,
      "Ġfeedback": 8564,
      "Ġexception": 8565,
      "itudes": 8566,
      "Ġradi": 8567,
      "ĠOffic": 8568,
      "Ġfalling": 8569,
      "ĠATP": 8570,
      "Ġfacing": 8571,
      "ĠAdam": 8572,
      "Ġvictims": 8573,
      "Ġrom": 8574,
      "Ġconfiguration": 8575,
      "ĠFestival": 8576,
      "uf": 8577,
      "Ġ41": 8578,
      "Ġvas": 8579,
      "Ġperm": 8580,
      "Ġcarb": 8581,
      "Ġaccommod": 8582,
      "Ġrecall": 8583,
      "razy": 8584,
      "gi": 8585,
      "ĠSteve": 8586,
      "Ġgrid": 8587,
      "2016": 8588,
      "Ġdesired": 8589,
      "fil": 8590,
      "Ġvaluable": 8591,
      "Ġbusy": 8592,
      "Ġ1983": 8593,
      "ĠRadio": 8594,
      "ĠRog": 8595,
      "ĠEmpire": 8596,
      "ĠMah": 8597,
      "Ġreasonable": 8598,
      "Ġstatistical": 8599,
      "etics": 8600,
      "Col": 8601,
      "ĠDaniel": 8602,
      "VD": 8603,
      "odyn": 8604,
      "Ġpropag": 8605,
      "Ġmovements": 8606,
      "essions": 8607,
      "ighed": 8608,
      "Ġguns": 8609,
      "Ġmyocardial": 8610,
      "Ġflying": 8611,
      "ĠPrime": 8612,
      "Ġceremon": 8613,
      "Ġinvention": 8614,
      "Ġreliable": 8615,
      "Ġkinds": 8616,
      "Ġdeaths": 8617,
      "Ġ49": 8618,
      "agues": 8619,
      "Ġselling": 8620,
      "obl": 8621,
      "ĠMean": 8622,
      "obile": 8623,
      "Ġsilent": 8624,
      "just": 8625,
      "ez": 8626,
      "Ġwaves": 8627,
      "ĠField": 8628,
      "ĠAdminist": 8629,
      "Ġpert": 8630,
      "ĠCivil": 8631,
      "Hz": 8632,
      "Ġadequ": 8633,
      "ruption": 8634,
      "open": 8635,
      "ĠLatin": 8636,
      "Ġinvolves": 8637,
      "Ġrect": 8638,
      "Ġlaser": 8639,
      "Ġteen": 8640,
      "Ġinfusion": 8641,
      "ĠMichigan": 8642,
      "Ġanywhere": 8643,
      "iary": 8644,
      "Ġbran": 8645,
      "iaz": 8646,
      "Ġrevolution": 8647,
      "bro": 8648,
      "ptides": 8649,
      "Ġparticipants": 8650,
      "ĠParliament": 8651,
      "Ġcomprehens": 8652,
      "}},": 8653,
      "Ġmedicine": 8654,
      "iest": 8655,
      "sey": 8656,
      "Ġrestaurant": 8657,
      "athered": 8658,
      "asters": 8659,
      "Ġwelcome": 8660,
      "Ġengineering": 8661,
      "omething": 8662,
      "Ġfool": 8663,
      "Ġrising": 8664,
      "Ġmarkets": 8665,
      "ĠPass": 8666,
      "bling": 8667,
      "flow": 8668,
      "Ġmomentum": 8669,
      "illary": 8670,
      "Ġcovers": 8671,
      "Ġconcerning": 8672,
      "Ġdefeat": 8673,
      "Ġpanc": 8674,
      "py": 8675,
      "neum": 8676,
      "icide": 8677,
      "cribed": 8678,
      "theless": 8679,
      "Ġterritory": 8680,
      "Mar": 8681,
      "mo": 8682,
      "Ġinfants": 8683,
      "Ġgreatly": 8684,
      "ĠBrook": 8685,
      "Ġessentially": 8686,
      "activity": 8687,
      "Ġclar": 8688,
      "Sim": 8689,
      "ĠCA": 8690,
      "Ġpayment": 8691,
      "bles": 8692,
      "Ġfasc": 8693,
      "~{}~{}": 8694,
      "ĠTO": 8695,
      "Ġrecognize": 8696,
      "ĠArts": 8697,
      "Ġgoods": 8698,
      "Cont": 8699,
      "ĠWalk": 8700,
      "ĠYet": 8701,
      "}>": 8702,
      "Ġconsecutive": 8703,
      "ĠReal": 8704,
      "Ġaffinity": 8705,
      "Ġserves": 8706,
      "Ġnic": 8707,
      "Ġenjoyed": 8708,
      "rif": 8709,
      "HL": 8710,
      "Because": 8711,
      "Ġclim": 8712,
      "ĠMult": 8713,
      "Ġfeels": 8714,
      "Ġinequ": 8715,
      "Ġprogramming": 8716,
      "Ġreturning": 8717,
      "Ġhate": 8718,
      "ĠThanks": 8719,
      "{(}": 8720,
      "Ġpassage": 8721,
      "rency": 8722,
      "ĠComput": 8723,
      "rolled": 8724,
      "Ġfired": 8725,
      "ĠVis": 8726,
      "Ġvocals": 8727,
      "Ġincreasingly": 8728,
      "ĠMain": 8729,
      "ĠNick": 8730,
      "Ġassistant": 8731,
      "thur": 8732,
      "opher": 8733,
      "}[]{": 8734,
      "aints": 8735,
      "Ġfinds": 8736,
      "ĠCall": 8737,
      "ĠWild": 8738,
      "}}=\\": 8739,
      "Ġwaited": 8740,
      "Ġeastern": 8741,
      "ĠJews": 8742,
      "Ġsoc": 8743,
      "ĠLy": 8744,
      "Int": 8745,
      "Ġinstant": 8746,
      "Ġsmoke": 8747,
      "anes": 8748,
      "system": 8749,
      "ĠEU": 8750,
      "ĠOrgan": 8751,
      "Ġdiagnostic": 8752,
      "Ġtet": 8753,
      "Ġmessages": 8754,
      "inch": 8755,
      "Ġalgorithms": 8756,
      "Ġcompetitive": 8757,
      "Ġreviewed": 8758,
      "Ġconfident": 8759,
      "Ġfavour": 8760,
      "scape": 8761,
      "ĠCat": 8762,
      "Ġfault": 8763,
      "Ġcompact": 8764,
      "Ġcareful": 8765,
      "antry": 8766,
      "Ġtopic": 8767,
      "Ġgaze": 8768,
      "prise": 8769,
      "ĠIP": 8770,
      "Ġretired": 8771,
      "Ġ46": 8772,
      "aired": 8773,
      "hskip": 8774,
      "Ġbreaking": 8775,
      "coin": 8776,
      "Ġrabbit": 8777,
      "Ġextreme": 8778,
      "Ġintroduction": 8779,
      "Ġtalked": 8780,
      "Ġsword": 8781,
      "sylvania": 8782,
      "Ġvolt": 8783,
      "minus": 8784,
      "Ġtruck": 8785,
      "ennis": 8786,
      "ĠSix": 8787,
      "Ġfriendly": 8788,
      "Ġspons": 8789,
      "%).": 8790,
      "Ġpump": 8791,
      "Ġmagnitude": 8792,
      "Ġvideos": 8793,
      "otten": 8794,
      "Ġdiameter": 8795,
      "lock": 8796,
      "Ġped": 8797,
      "aks": 8798,
      "Ġautomatically": 8799,
      "Ð¸": 8800,
      "Ġconsiderable": 8801,
      "unc": 8802,
      "ifier": 8803,
      "Ġmerg": 8804,
      "ĠInformation": 8805,
      "Ġbeauty": 8806,
      "ĠWilson": 8807,
      "ĠFer": 8808,
      "Ġlect": 8809,
      "Ġwondered": 8810,
      "ĠUk": 8811,
      "ĠWas": 8812,
      "Ġdisappoint": 8813,
      "Ġveter": 8814,
      "inea": 8815,
      "rive": 8816,
      "iger": 8817,
      "Ġperfectly": 8818,
      "Ġdriven": 8819,
      "Ġvessels": 8820,
      "nership": 8821,
      "ĠBoy": 8822,
      "underline": 8823,
      "Ġreducing": 8824,
      "race": 8825,
      "ĠBush": 8826,
      "new": 8827,
      "Ġdisturb": 8828,
      "Ġpharmac": 8829,
      "Ġdipl": 8830,
      "Ġ1982": 8831,
      "ĠCorpor": 8832,
      "Ġmol": 8833,
      "{{{": 8834,
      "Ġthirty": 8835,
      "Ġagricult": 8836,
      "ĠPop": 8837,
      "Ġlying": 8838,
      "ĠCoast": 8839,
      "Ġsurve": 8840,
      "Ġretail": 8841,
      "ĠAst": 8842,
      "Ġjet": 8843,
      "Ġevident": 8844,
      "Ġreward": 8845,
      "Ġbriefly": 8846,
      "ĠAgain": 8847,
      "Ġdrinking": 8848,
      "ĠBell": 8849,
      "Ġcreative": 8850,
      "Ġexplo": 8851,
      "fol": 8852,
      "Ġteachers": 8853,
      "Ġremembered": 8854,
      "peror": 8855,
      "Ġdrawing": 8856,
      "Ġcrypt": 8857,
      "Ġposts": 8858,
      "Ġhappening": 8859,
      "ĠIns": 8860,
      "Ġtranslation": 8861,
      ")}": 8862,
      "rosis": 8863,
      "Ġgranted": 8864,
      "utenant": 8865,
      "See": 8866,
      "Ġwithdraw": 8867,
      "Ġgrant": 8868,
      "Ġorth": 8869,
      "Ġinhibitor": 8870,
      "Ġsupports": 8871,
      "ĠEastern": 8872,
      "ĠCH": 8873,
      "oven": 8874,
      "Ġinstalled": 8875,
      "ĠResults": 8876,
      "onents": 8877,
      "Ġinterior": 8878,
      "Ġvert": 8879,
      "Ġvib": 8880,
      "worth": 8881,
      "Ġnucleus": 8882,
      "Ġfiled": 8883,
      "ĠMedical": 8884,
      "Ġbeach": 8885,
      "ĠLabor": 8886,
      "Ġfruit": 8887,
      "Ġstayed": 8888,
      "Ġsituations": 8889,
      "yard": 8890,
      "Most": 8891,
      "osine": 8892,
      "ĠOx": 8893,
      "door": 8894,
      "Ġpreferred": 8895,
      "Ġ$(\\": 8896,
      "Ġthromb": 8897,
      "Ġopposed": 8898,
      "Ġtables": 8899,
      "ĠGeorgia": 8900,
      "lyn": 8901,
      "Ġfeelings": 8902,
      "Ġpredom": 8903,
      "Ġhelpful": 8904,
      "icked": 8905,
      "Ġtip": 8906,
      "OD": 8907,
      "ĠWales": 8908,
      "Ġfacts": 8909,
      "Ġprinciples": 8910,
      "CAT": 8911,
      "ĠHead": 8912,
      "Ġlawyer": 8913,
      "ĠStudies": 8914,
      "ĠMatt": 8915,
      "Ġkinase": 8916,
      "Ġcalm": 8917,
      "Ġpurchased": 8918,
      "auss": 8919,
      "itated": 8920,
      "Ġwinner": 8921,
      "Ġterminal": 8922,
      "ĠAff": 8923,
      "STR": 8924,
      "Ġathlet": 8925,
      "âĤ¬": 8926,
      "Ġcolour": 8927,
      "ownt": 8928,
      "Ġretire": 8929,
      "ritis": 8930,
      "ĠTH": 8931,
      "Ġfetal": 8932,
      "Ġintegrated": 8933,
      "Ġfract": 8934,
      "Ġcatal": 8935,
      "2012": 8936,
      "opsy": 8937,
      "bec": 8938,
      "MR": 8939,
      "ilty": 8940,
      "Ġnecessarily": 8941,
      "asant": 8942,
      "Ġunderw": 8943,
      "ĠReview": 8944,
      "itled": 8945,
      "Ġantigens": 8946,
      "Ġinstitution": 8947,
      "Ġfairly": 8948,
      "Ġelections": 8949,
      "Car": 8950,
      "idal": 8951,
      "CG": 8952,
      "ji": 8953,
      "Ġdisplayed": 8954,
      "Ġbrothers": 8955,
      "Ġhes": 8956,
      "Ġmaximal": 8957,
      "ĠTaylor": 8958,
      "ĠPen": 8959,
      "ĠHIV": 8960,
      "ĠPA": 8961,
      "ĠViet": 8962,
      "Ġmetric": 8963,
      "erves": 8964,
      "2013": 8965,
      "sis": 8966,
      "Ġfluores": 8967,
      "ĠVen": 8968,
      "OW": 8969,
      "2010": 8970,
      "Ġprotest": 8971,
      "gal": 8972,
      "Ġquad": 8973,
      "deg": 8974,
      "Ġextend": 8975,
      "Ġgray": 8976,
      "hythm": 8977,
      "esterday": 8978,
      "Ġspokes": 8979,
      "Ġpleasure": 8980,
      "ĠScotland": 8981,
      "Ġemotional": 8982,
      "print": 8983,
      "wedge": 8984,
      "ĠLind": 8985,
      "Äģ": 8986,
      "Ġimper": 8987,
      "ĠJersey": 8988,
      "ENT": 8989,
      "Ġintention": 8990,
      "path": 8991,
      "Ġcardi": 8992,
      "ĠBroad": 8993,
      "awa": 8994,
      "hent": 8995,
      "Ġphotograph": 8996,
      "Ġmoves": 8997,
      "Ġurinary": 8998,
      "Da": 8999,
      ")+\\": 9000,
      "BM": 9001,
      "ĠUse": 9002,
      "suit": 9003,
      "ĠCamb": 9004,
      "Ġentrance": 9005,
      "Ġcluster": 9006,
      "Ġvisited": 9007,
      "Ġnm": 9008,
      "ĠBi": 9009,
      "Ġstronger": 9010,
      "ĠHard": 9011,
      "ĠPennsylvania": 9012,
      "Ġtea": 9013,
      "ĠBBC": 9014,
      "Ġengaged": 9015,
      "Ġmechanical": 9016,
      "uction": 9017,
      "ructed": 9018,
      "rebbe": 9019,
      "ĠJr": 9020,
      "Ġimaging": 9021,
      "Ġbund": 9022,
      "Ġpresentation": 9023,
      "Ġarmed": 9024,
      "ificial": 9025,
      "Ġplain": 9026,
      "Ġhypertension": 9027,
      "Ġtack": 9028,
      "rue": 9029,
      "EE": 9030,
      "ĠBul": 9031,
      "also": 9032,
      "Ġscientists": 9033,
      "Ġdent": 9034,
      "attering": 9035,
      "rell": 9036,
      "ĠPot": 9037,
      "ranged": 9038,
      "Ġrenew": 9039,
      "Ġwarning": 9040,
      "Ġfragment": 9041,
      "anto": 9042,
      "Ġstored": 9043,
      "Ġsupplement": 9044,
      "Ġdismiss": 9045,
      "Ġblank": 9046,
      "Ġintr": 9047,
      "Ġlob": 9048,
      "ĠPalest": 9049,
      "ht": 9050,
      "Pe": 9051,
      "Ġanswers": 9052,
      "Ġhide": 9053,
      "Ġgradient": 9054,
      "ĠPakistan": 9055,
      "oir": 9056,
      "rett": 9057,
      "Ġinspect": 9058,
      "hus": 9059,
      "Ġrecovered": 9060,
      "ĠAR": 9061,
      "Theta": 9062,
      "Ġexplanation": 9063,
      "SR": 9064,
      "Ġalla": 9065,
      "ĠFair": 9066,
      "elect": 9067,
      "ensitive": 9068,
      "ĠLear": 9069,
      "ĠNic": 9070,
      "eting": 9071,
      "Any": 9072,
      "ropical": 9073,
      "2007": 9074,
      "2015": 9075,
      "haust": 9076,
      "Ġ()": 9077,
      "Ġenzymes": 9078,
      "ĠDark": 9079,
      "Ġcoc": 9080,
      "Ġvag": 9081,
      "unning": 9082,
      "ĠTurn": 9083,
      "Ġcompris": 9084,
      "Ġbigger": 9085,
      "ĠJer": 9086,
      "Ġ1979": 9087,
      "ĠManagement": 9088,
      "ĠAfghan": 9089,
      "Ġbarely": 9090,
      "ĠCirc": 9091,
      "Ġ47": 9092,
      "Ġbin": 9093,
      "Ġ52": 9094,
      "quarters": 9095,
      "Ġml": 9096,
      "Ġpolymer": 9097,
      "Ġshares": 9098,
      "ĠAlexander": 9099,
      "Ġvulner": 9100,
      "colon": 9101,
      "const": 9102,
      "wart": 9103,
      "2006": 9104,
      "ĠCub": 9105,
      "DR": 9106,
      "lium": 9107,
      "Ġprolong": 9108,
      "vy": 9109,
      "Please": 9110,
      "grad": 9111,
      "Ġrecover": 9112,
      "{|": 9113,
      "Ġchol": 9114,
      "ĠRyan": 9115,
      "Ġsubstrate": 9116,
      "approx": 9117,
      "ĠThrough": 9118,
      "Ġtough": 9119,
      "eling": 9120,
      "Ġconstitution": 9121,
      "Ġdependence": 9122,
      "Ġpp": 9123,
      "ĠLow": 9124,
      "Ġscheduled": 9125,
      "Ġtherapeutic": 9126,
      "Ġspatial": 9127,
      "Ġpurs": 9128,
      "ĠRome": 9129,
      "Ġconsequences": 9130,
      "uli": 9131,
      "ortion": 9132,
      "Ġpreval": 9133,
      "Ġpolynom": 9134,
      "ĠMarg": 9135,
      "Ġelectroph": 9136,
      "Ġmonoclonal": 9137,
      "Ġattacked": 9138,
      "CL": 9139,
      "Ġtheorem": 9140,
      "ĠElizabeth": 9141,
      "Ġsubstantial": 9142,
      "Ġcrash": 9143,
      "fficients": 9144,
      "ĠDutch": 9145,
      "eries": 9146,
      "Ġcovering": 9147,
      "Ġintraven": 9148,
      "isely": 9149,
      "Ġpocket": 9150,
      "Ġourselves": 9151,
      "Ġfrust": 9152,
      "Even": 9153,
      "Ġguest": 9154,
      "Ġmeal": 9155,
      "Ġreveal": 9156,
      "Ġcomplicated": 9157,
      "Ġbacteria": 9158,
      "ubl": 9159,
      "Ġ1981": 9160,
      "Yeah": 9161,
      "Ġuniverse": 9162,
      "Ġrepresentative": 9163,
      "ĠSat": 9164,
      "Ġpersonnel": 9165,
      "ĠBru": 9166,
      "${": 9167,
      "ĠCur": 9168,
      "Ġbon": 9169,
      "ĠFamily": 9170,
      "ĠPur": 9171,
      "}{}{{": 9172,
      "Thank": 9173,
      "adi": 9174,
      "Ġlady": 9175,
      "ĠWOR": 9176,
      "Ġvon": 9177,
      "2011": 9178,
      "%),": 9179,
      "Ġmurd": 9180,
      "ipe": 9181,
      "attered": 9182,
      "yal": 9183,
      "changed": 9184,
      "Ġairport": 9185,
      "hop": 9186,
      "Ġmitochond": 9187,
      "estion": 9188,
      "Ġcock": 9189,
      "Ġbrings": 9190,
      "Ġmyel": 9191,
      "Ġaudio": 9192,
      "onin": 9193,
      "Ġshru": 9194,
      "Ġinterf": 9195,
      "auge": 9196,
      "ĠFilm": 9197,
      "spe": 9198,
      "Ġwound": 9199,
      "eum": 9200,
      "Ġfulf": 9201,
      "Ġtongue": 9202,
      "ĠTen": 9203,
      "Ġequally": 9204,
      "Ġstatements": 9205,
      "Ġcomputed": 9206,
      "Ġdesigns": 9207,
      "Ġphr": 9208,
      "Ġtemperatures": 9209,
      "Add": 9210,
      "Ġroutine": 9211,
      "Ġattorney": 9212,
      "axy": 9213,
      "Ġdecline": 9214,
      "ographer": 9215,
      "Two": 9216,
      "ami": 9217,
      "Ġangry": 9218,
      "lamic": 9219,
      "ĠHolly": 9220,
      "strokecolor": 9221,
      "pgfstrokecolor": 9222,
      "har": 9223,
      "Ġstatistics": 9224,
      "Ġmanifest": 9225,
      "Ġadjacent": 9226,
      "Ġassumption": 9227,
      "Ġinqu": 9228,
      "Ġoste": 9229,
      "Ġcrossed": 9230,
      "ellect": 9231,
      "ĠMicrosoft": 9232,
      "Ġcourses": 9233,
      "Ġappeal": 9234,
      "Ġwhispered": 9235,
      ")}_{": 9236,
      "leton": 9237,
      "Ġurine": 9238,
      "Ġresource": 9239,
      "Ġglut": 9240,
      "Ġupdated": 9241,
      "ptions": 9242,
      "enter": 9243,
      "ĠLater": 9244,
      "Ġundert": 9245,
      "rity": 9246,
      "Ġwing": 9247,
      "2014": 9248,
      "Did": 9249,
      "Ġunex": 9250,
      "ï¿": 9251,
      "Ġoperate": 9252,
      "Ġ51": 9253,
      "comes": 9254,
      "ĠBeach": 9255,
      "Ġbanks": 9256,
      "Ġobserve": 9257,
      "Ġlowest": 9258,
      "Ġpitch": 9259,
      "Ġdiffer": 9260,
      "Ġadvoc": 9261,
      "Ġlabeled": 9262,
      "ĠMedia": 9263,
      "Ġimplemented": 9264,
      "Ġcooper": 9265,
      "Ġmoderate": 9266,
      "iti": 9267,
      "Ġnav": 9268,
      "ĠSeveral": 9269,
      "Ġsaved": 9270,
      "ĠSong": 9271,
      "Ġchromatography": 9272,
      "burgh": 9273,
      "Ġvariations": 9274,
      "Ġproposal": 9275,
      "ulty": 9276,
      "Ġsending": 9277,
      "Ġstudying": 9278,
      "hips": 9279,
      "Ġrepresenting": 9280,
      "Ġdiabetes": 9281,
      "only": 9282,
      "Ġarray": 9283,
      "ĠCommunity": 9284,
      "imm": 9285,
      "Ġcrack": 9286,
      "Ġtonight": 9287,
      "Ġ120": 9288,
      "??": 9289,
      "2008": 9290,
      "ĠLin": 9291,
      "Ġintent": 9292,
      "Ġstimulated": 9293,
      "Ġprediction": 9294,
      "itage": 9295,
      "ideo": 9296,
      "Ġcopies": 9297,
      "Ġtransplant": 9298,
      "Ġuncom": 9299,
      "break": 9300,
      "Ġending": 9301,
      "Ġexamine": 9302,
      "Ġ%": 9303,
      "Ġrif": 9304,
      "Ġlipid": 9305,
      "2000": 9306,
      "Ġchoices": 9307,
      "Ġmathemat": 9308,
      "PD": 9309,
      "ĠStat": 9310,
      "Ġregularly": 9311,
      "ĠâĪİ": 9312,
      "Ġunc": 9313,
      "osterone": 9314,
      "high": 9315,
      "endix": 9316,
      "Ġpresidential": 9317,
      "ectomy": 9318,
      "Ġleaned": 9319,
      "aire": 9320,
      "Ġcav": 9321,
      "Ġparticipate": 9322,
      "methyl": 9323,
      "afe": 9324,
      "Ġenable": 9325,
      "arry": 9326,
      "ĠGre": 9327,
      "ĠRos": 9328,
      "Ġsimultaneously": 9329,
      "including": 9330,
      "Ġblow": 9331,
      "Ġmoon": 9332,
      "ĠHal": 9333,
      "Ġatmosphere": 9334,
      "Ġtank": 9335,
      "Ġprepare": 9336,
      "piration": 9337,
      "ĠEth": 9338,
      "cases": 9339,
      "Ġtears": 9340,
      "Ġseriously": 9341,
      "equation": 9342,
      "riers": 9343,
      "ĠmicroM": 9344,
      "Ġdeck": 9345,
      "ï¿½": 9346,
      "Ġcaps": 9347,
      "OC": 9348,
      "Ġanger": 9349,
      "pson": 9350,
      "inois": 9351,
      "Ġmanip": 9352,
      "Ġthrew": 9353,
      "Ġpace": 9354,
      "taining": 9355,
      "Ġshortly": 9356,
      "ĠDub": 9357,
      "Ġinstrument": 9358,
      "asis": 9359,
      "Ġhepatic": 9360,
      "ĠGirl": 9361,
      "_{+": 9362,
      "Ġtradition": 9363,
      "Ġpresents": 9364,
      "Ed": 9365,
      "Ġconsisting": 9366,
      "Ġchicken": 9367,
      "ĠBon": 9368,
[...]
